{
  "version": "1.0",
  "truncation": null,
  "padding": {
    "strategy": "BatchLongest",
    "direction": "Right",
    "pad_to_multiple_of": null,
    "pad_id": 2,
    "pad_type_id": 0,
    "pad_token": "<|pad|>"
  },
  "added_tokens": [
    {
      "id": 0,
      "content": "<|bos|>",
      "single_word": false,
      "lstrip": false,
      "rstrip": false,
      "normalized": false,
      "special": true
    },
    {
      "id": 1,
      "content": "<|eos|>",
      "single_word": false,
      "lstrip": false,
      "rstrip": false,
      "normalized": false,
      "special": true
    },
    {
      "id": 2,
      "content": "<|pad|>",
      "single_word": false,
      "lstrip": false,
      "rstrip": false,
      "normalized": false,
      "special": true
    },
    {
      "id": 3,
      "content": "<|unk|>",
      "single_word": false,
      "lstrip": false,
      "rstrip": false,
      "normalized": false,
      "special": true
    },
    {
      "id": 4,
      "content": "<|question|>",
      "single_word": false,
      "lstrip": false,
      "rstrip": false,
      "normalized": false,
      "special": true
    },
    {
      "id": 5,
      "content": "<|reasoning|>",
      "single_word": false,
      "lstrip": false,
      "rstrip": false,
      "normalized": false,
      "special": true
    },
    {
      "id": 6,
      "content": "<|answer|>",
      "single_word": false,
      "lstrip": false,
      "rstrip": false,
      "normalized": false,
      "special": true
    }
  ],
  "normalizer": {
    "type": "Sequence",
    "normalizers": [
      {
        "type": "NFKC"
      },
      {
        "type": "Replace",
        "pattern": {
          "String": "\r\n"
        },
        "content": "\n"
      },
      {
        "type": "Replace",
        "pattern": {
          "String": "\r"
        },
        "content": "\n"
      }
    ]
  },
  "pre_tokenizer": {
    "type": "Sequence",
    "pretokenizers": [
      {
        "type": "UnicodeScripts"
      },
      {
        "type": "Digits",
        "individual_digits": true
      },
      {
        "type": "ByteLevel",
        "add_prefix_space": false,
        "trim_offsets": true,
        "use_regex": true
      }
    ]
  },
  "post_processor": {
    "type": "TemplateProcessing",
    "single": [
      {
        "SpecialToken": {
          "id": "<|bos|>",
          "type_id": 0
        }
      },
      {
        "Sequence": {
          "id": "A",
          "type_id": 0
        }
      },
      {
        "SpecialToken": {
          "id": "<|eos|>",
          "type_id": 0
        }
      }
    ],
    "pair": [
      {
        "SpecialToken": {
          "id": "<|bos|>",
          "type_id": 0
        }
      },
      {
        "Sequence": {
          "id": "A",
          "type_id": 0
        }
      },
      {
        "SpecialToken": {
          "id": "<|eos|>",
          "type_id": 0
        }
      },
      {
        "SpecialToken": {
          "id": "<|bos|>",
          "type_id": 0
        }
      },
      {
        "Sequence": {
          "id": "B",
          "type_id": 1
        }
      },
      {
        "SpecialToken": {
          "id": "<|eos|>",
          "type_id": 1
        }
      }
    ],
    "special_tokens": {
      "<|bos|>": {
        "id": "<|bos|>",
        "ids": [
          0
        ],
        "tokens": [
          "<|bos|>"
        ]
      },
      "<|eos|>": {
        "id": "<|eos|>",
        "ids": [
          1
        ],
        "tokens": [
          "<|eos|>"
        ]
      }
    }
  },
  "decoder": null,
  "model": {
    "type": "BPE",
    "dropout": null,
    "unk_token": "<|unk|>",
    "continuing_subword_prefix": "##",
    "end_of_word_suffix": null,
    "fuse_unk": false,
    "byte_fallback": false,
    "ignore_merges": false,
    "vocab": {
      "<|bos|>": 0,
      "<|eos|>": 1,
      "<|pad|>": 2,
      "<|unk|>": 3,
      "<|question|>": 4,
      "<|reasoning|>": 5,
      "<|answer|>": 6,
      "!": 7,
      "\"": 8,
      "#": 9,
      "$": 10,
      "%": 11,
      "&": 12,
      "'": 13,
      "(": 14,
      ")": 15,
      "*": 16,
      "+": 17,
      ",": 18,
      "-": 19,
      ".": 20,
      "/": 21,
      "0": 22,
      "1": 23,
      "2": 24,
      "3": 25,
      "4": 26,
      "5": 27,
      "6": 28,
      "7": 29,
      "8": 30,
      "9": 31,
      ":": 32,
      ";": 33,
      "<": 34,
      "=": 35,
      ">": 36,
      "?": 37,
      "@": 38,
      "A": 39,
      "B": 40,
      "C": 41,
      "D": 42,
      "E": 43,
      "F": 44,
      "G": 45,
      "H": 46,
      "I": 47,
      "J": 48,
      "K": 49,
      "L": 50,
      "M": 51,
      "N": 52,
      "O": 53,
      "P": 54,
      "Q": 55,
      "R": 56,
      "S": 57,
      "T": 58,
      "U": 59,
      "V": 60,
      "W": 61,
      "X": 62,
      "Y": 63,
      "Z": 64,
      "[": 65,
      "\\": 66,
      "]": 67,
      "^": 68,
      "_": 69,
      "`": 70,
      "a": 71,
      "b": 72,
      "c": 73,
      "d": 74,
      "e": 75,
      "f": 76,
      "g": 77,
      "h": 78,
      "i": 79,
      "j": 80,
      "k": 81,
      "l": 82,
      "m": 83,
      "n": 84,
      "o": 85,
      "p": 86,
      "q": 87,
      "r": 88,
      "s": 89,
      "t": 90,
      "u": 91,
      "v": 92,
      "w": 93,
      "x": 94,
      "y": 95,
      "z": 96,
      "{": 97,
      "|": 98,
      "}": 99,
      "~": 100,
      "¡": 101,
      "¢": 102,
      "£": 103,
      "¤": 104,
      "¥": 105,
      "¦": 106,
      "§": 107,
      "¨": 108,
      "©": 109,
      "ª": 110,
      "«": 111,
      "¬": 112,
      "®": 113,
      "¯": 114,
      "°": 115,
      "±": 116,
      "²": 117,
      "³": 118,
      "´": 119,
      "µ": 120,
      "¶": 121,
      "·": 122,
      "¸": 123,
      "¹": 124,
      "º": 125,
      "»": 126,
      "¼": 127,
      "½": 128,
      "¾": 129,
      "¿": 130,
      "À": 131,
      "Á": 132,
      "Â": 133,
      "Ã": 134,
      "Ä": 135,
      "Å": 136,
      "Æ": 137,
      "Ç": 138,
      "È": 139,
      "É": 140,
      "Ê": 141,
      "Ë": 142,
      "Ì": 143,
      "Í": 144,
      "Î": 145,
      "Ï": 146,
      "Ð": 147,
      "Ñ": 148,
      "Ò": 149,
      "Ó": 150,
      "Ô": 151,
      "Õ": 152,
      "Ö": 153,
      "×": 154,
      "Ø": 155,
      "Ù": 156,
      "Ú": 157,
      "Û": 158,
      "Ü": 159,
      "Ý": 160,
      "Þ": 161,
      "ß": 162,
      "à": 163,
      "á": 164,
      "â": 165,
      "ã": 166,
      "ä": 167,
      "å": 168,
      "æ": 169,
      "ç": 170,
      "è": 171,
      "é": 172,
      "ê": 173,
      "ë": 174,
      "ì": 175,
      "í": 176,
      "î": 177,
      "ï": 178,
      "ð": 179,
      "ñ": 180,
      "ò": 181,
      "ó": 182,
      "ô": 183,
      "õ": 184,
      "ö": 185,
      "÷": 186,
      "ø": 187,
      "ù": 188,
      "ú": 189,
      "û": 190,
      "ü": 191,
      "ý": 192,
      "þ": 193,
      "ÿ": 194,
      "Ā": 195,
      "ā": 196,
      "Ă": 197,
      "ă": 198,
      "Ą": 199,
      "ą": 200,
      "Ć": 201,
      "ć": 202,
      "Ĉ": 203,
      "ĉ": 204,
      "Ċ": 205,
      "ċ": 206,
      "Č": 207,
      "č": 208,
      "Ď": 209,
      "ď": 210,
      "Đ": 211,
      "đ": 212,
      "Ē": 213,
      "ē": 214,
      "Ĕ": 215,
      "ĕ": 216,
      "Ė": 217,
      "ė": 218,
      "Ę": 219,
      "ę": 220,
      "Ě": 221,
      "ě": 222,
      "Ĝ": 223,
      "ĝ": 224,
      "Ğ": 225,
      "ğ": 226,
      "Ġ": 227,
      "ġ": 228,
      "Ģ": 229,
      "ģ": 230,
      "Ĥ": 231,
      "ĥ": 232,
      "Ħ": 233,
      "ħ": 234,
      "Ĩ": 235,
      "ĩ": 236,
      "Ī": 237,
      "ī": 238,
      "Ĭ": 239,
      "ĭ": 240,
      "Į": 241,
      "į": 242,
      "İ": 243,
      "ı": 244,
      "Ĳ": 245,
      "ĳ": 246,
      "Ĵ": 247,
      "ĵ": 248,
      "Ķ": 249,
      "ķ": 250,
      "ĸ": 251,
      "Ĺ": 252,
      "ĺ": 253,
      "Ļ": 254,
      "ļ": 255,
      "Ľ": 256,
      "ľ": 257,
      "Ŀ": 258,
      "ŀ": 259,
      "Ł": 260,
      "ł": 261,
      "Ń": 262,
      "##j": 263,
      "##e": 264,
      "##n": 265,
      "##d": 266,
      "##r": 267,
      "##a": 268,
      "##p": 269,
      "##s": 270,
      "##m": 271,
      "##o": 272,
      "##b": 273,
      "##i": 274,
      "##l": 275,
      "##t": 276,
      "##I": 277,
      "##c": 278,
      "##{": 279,
      "##%": 280,
      "##|": 281,
      "##.": 282,
      "##'": 283,
      "##h": 284,
      "##f": 285,
      "##g": 286,
      "##k": 287,
      "##u": 288,
      "##K": 289,
      "##w": 290,
      "##y": 291,
      "##z": 292,
      "##A": 293,
      "##U": 294,
      "##N": 295,
      "##T": 296,
      "##V": 297,
      "##C": 298,
      "##W": 299,
      "##ï": 300,
      "##¿": 301,
      "##½": 302,
      "###": 303,
      "##v": 304,
      "##P": 305,
      "##G": 306,
      "##S": 307,
      "##L": 308,
      "##B": 309,
      "##E": 310,
      "##R": 311,
      "##M": 312,
      "##x": 313,
      "##Ã": 314,
      "##¶": 315,
      "##è": 316,
      "##¥": 317,
      "##Ĺ": 318,
      "##ı": 319,
      "##é": 320,
      "##«": 321,
      "##ĺ": 322,
      "##å": 323,
      "##İ": 324,
      "##Ł": 325,
      "##æ": 326,
      "##£": 327,
      "##®": 328,
      "##ŀ": 329,
      "##ç": 330,
      "##Ķ": 331,
      "##Ģ": 332,
      "##ģ": 333,
      "##ĩ": 334,
      "##į": 335,
      "##Ĥ": 336,
      "##¹": 337,
      "##ª": 338,
      "##Į": 339,
      "##¤": 340,
      "##D": 341,
      "##O": 342,
      "##H": 343,
      "##_": 344,
      "##@": 345,
      "##F": 346,
      "##q": 347,
      "##X": 348,
      "##J": 349,
      "##<": 350,
      "##>": 351,
      "##Z": 352,
      "##´": 353,
      "##&": 354,
      "##=": 355,
      "##?": 356,
      "##Q": 357,
      "##`": 358,
      "##,": 359,
      "##ĸ": 360,
      "##Ń": 361,
      "##¦": 362,
      "##ľ": 363,
      "##§": 364,
      "##ħ": 365,
      "##¨": 366,
      "##ĕ": 367,
      "##]": 368,
      "##}": 369,
      "##¼": 370,
      "##á": 371,
      "##»": 372,
      "##ì": 373,
      "##Ħ": 374,
      "##Ŀ": 375,
      "##(": 376,
      "##+": 377,
      "##^": 378,
      "##ġ": 379,
      "##-": 380,
      "##Ĝ": 381,
      "##Ğ": 382,
      "##â": 383,
      "##Ļ": 384,
      "##Ī": 385,
      "##Ĵ": 386,
      "##±": 387,
      "##Ð": 388,
      "##Ñ": 389,
      "##°": 390,
      "##²": 391,
      "##[": 392,
      "##\\": 393,
      "##Y": 394,
      "##Ĩ": 395,
      "##ĵ": 396,
      "##©": 397,
      "##¬": 398,
      "##ł": 399,
      "##Ą": 400,
      "##º": 401,
      "##¸": 402,
      "##¾": 403,
      "##³": 404,
      "##ä": 405,
      "##ļ": 406,
      "##ĳ": 407,
      "##¢": 408,
      "##µ": 409,
      "##ĭ": 410,
      "##¯": 411,
      "##·": 412,
      "##Â": 413,
      "##ī": 414,
      "##ķ": 415,
      "##à": 416,
      "##Ĳ": 417,
      "##¡": 418,
      "##Ĭ": 419,
      "##ĥ": 420,
      "##Ê": 421,
      "##Ä": 422,
      "##$": 423,
      "##Ľ": 424,
      "##\"": 425,
      "##;": 426,
      "##*": 427,
      "##)": 428,
      "##ă": 429,
      "##:": 430,
      "##!": 431,
      "##ğ": 432,
      "##ė": 433,
      "##Ď": 434,
      "##Ø": 435,
      "##Ù": 436,
      "##Û": 437,
      "##~": 438,
      "##ď": 439,
      "##ć": 440,
      "##Ė": 441,
      "##Ę": 442,
      "##ã": 443,
      "##/": 444,
      "##ě": 445,
      "##ę": 446,
      "##ą": 447,
      "##ā": 448,
      "##đ": 449,
      "##Ĉ": 450,
      "##Î": 451,
      "##Ï": 452,
      "##ê": 453,
      "##í": 454,
      "##ë": 455,
      "##Ă": 456,
      "##Ë": 457,
      "##Æ": 458,
      "##Å": 459,
      "##È": 460,
      "##Đ": 461,
      "##É": 462,
      "##ē": 463,
      "##Ē": 464,
      "##Ć": 465,
      "##Ĕ": 466,
      "##Ě": 467,
      "##î": 468,
      "##ĝ": 469,
      "##ĉ": 470,
      "##×": 471,
      "##ð": 472,
      "##Ç": 473,
      "##Þ": 474,
      "##Ö": 475,
      "##Ò": 476,
      "##Ì": 477,
      "##Í": 478,
      "##Ġ": 479,
      "##Õ": 480,
      "##Ô": 481,
      "##ô": 482,
      "##ó": 483,
      "##Ċ": 484,
      "##ò": 485,
      "##ñ": 486,
      "##Ú": 487,
      "##Ý": 488,
      "##ß": 489,
      "##Ü": 490,
      "##Ó": 491,
      "##Č": 492,
      "##ċ": 493,
      "Ġt": 494,
      "##he": 495,
      "##in": 496,
      "Ġa": 497,
      "##on": 498,
      "##re": 499,
      "##at": 500,
      "Ġthe": 501,
      "##er": 502,
      "Ġs": 503,
      "Ġo": 504,
      "##en": 505,
      "##is": 506,
      "Ġc": 507,
      "##or": 508,
      "##al": 509,
      "##es": 510,
      "##it": 511,
      "##ion": 512,
      "##an": 513,
      "Ġf": 514,
      "Ġp": 515,
      "Ġof": 516,
      "Ġw": 517,
      "##ed": 518,
      "##ar": 519,
      "##nd": 520,
      "##ic": 521,
      "##ing": 522,
      "##le": 523,
      "Ġb": 524,
      "Ġm": 525,
      "Ġin": 526,
      "Ġd": 527,
      "##ou": 528,
      "##ct": 529,
      "Ġto": 530,
      "##ro": 531,
      "ĊĊ": 532,
      "Ġth": 533,
      "##as": 534,
      "##et": 535,
      "Ġe": 536,
      "##ent": 537,
      "##om": 538,
      "Ġis": 539,
      "Ġn": 540,
      "##st": 541,
      "##ve": 542,
      "Ġand": 543,
      "##ation": 544,
      "Ġre": 545,
      "##im": 546,
      "##ut": 547,
      "##ly": 548,
      "##ra": 549,
      "Ġl": 550,
      "##ot": 551,
      "##ll": 552,
      "Ġh": 553,
      "##ig": 554,
      "##ce": 555,
      "##ow": 556,
      "Ġg": 557,
      "##ol": 558,
      "##us": 559,
      "Ġfor": 560,
      "##ĠĠ": 561,
      "##ul": 562,
      "Ġbe": 563,
      "âĢ": 564,
      "##id": 565,
      "##am": 566,
      "##um": 567,
      "Ġthat": 568,
      "Ġon": 569,
      "##ch": 570,
      "##qu": 571,
      "##ver": 572,
      "##ith": 573,
      "##od": 574,
      "Ġan": 575,
      "The": 576,
      "##ur": 577,
      "Ġst": 578,
      "##if": 579,
      "Ġcon": 580,
      "##il": 581,
      "Ġpro": 582,
      "##el": 583,
      "and": 584,
      "##os": 585,
      "##un": 586,
      "Ġy": 587,
      "##ay": 588,
      "##ate": 589,
      "##ge": 590,
      "##ction": 591,
      "##ri": 592,
      "Ġwith": 593,
      "##ab": 594,
      "Ġex": 595,
      "Ġas": 596,
      "Ġare": 597,
      "Ġit": 598,
      "##ter": 599,
      "##pl": 600,
      "the": 601,
      "Ġv": 602,
      "##ir": 603,
      "Ġ\\": 604,
      "ĠS": 605,
      "Ġyou": 606,
      "##pe": 607,
      "##ist": 608,
      "##em": 609,
      "##ure": 610,
      "Ġus": 611,
      "##ity": 612,
      "##igh": 613,
      "##nt": 614,
      "Ġcom": 615,
      "##ad": 616,
      "ĠI": 617,
      "##ere": 618,
      "##est": 619,
      "##se": 620,
      "##her": 621,
      "##..": 622,
      "ĠC": 623,
      "Ġ(": 624,
      "##ore": 625,
      "##ef": 626,
      "##ive": 627,
      "##ple": 628,
      "Ġby": 629,
      "##iv": 630,
      "Ġr": 631,
      "Ġthis": 632,
      "ĠA": 633,
      "Ġcan": 634,
      "##ers": 635,
      "$$": 636,
      "##ant": 637,
      "##ight": 638,
      "##ment": 639,
      "##ac": 640,
      "##pt": 641,
      "##rom": 642,
      "##ine": 643,
      "##res": 644,
      "##ave": 645,
      "ĠP": 646,
      "Ġse": 647,
      "ĠM": 648,
      "##ical": 649,
      "##per": 650,
      "##ial": 651,
      "Ġor": 652,
      "##ill": 653,
      "Ġal": 654,
      "Ġat": 655,
      "Ġnot": 656,
      "##ess": 657,
      "##ke": 658,
      "##art": 659,
      "####": 660,
      "##and": 661,
      "##ain": 662,
      "##ld": 663,
      "Ġwe": 664,
      "##ĠĠĠĠ": 665,
      "##oc": 666,
      "Ġwh": 667,
      "in": 668,
      "##ect": 669,
      "Ġsu": 670,
      "##ath": 671,
      "##ies": 672,
      "Ġne": 673,
      "##pp": 674,
      "##ich": 675,
      "ĠT": 676,
      "##ble": 677,
      "##og": 678,
      "Ġfrom": 679,
      "##iz": 680,
      "âĢ¢": 681,
      "Ġhave": 682,
      "Ġde": 683,
      "##ag": 684,
      "##ult": 685,
      "##ould": 686,
      "##ations": 687,
      "Ġsh": 688,
      "Th": 689,
      "##orm": 690,
      "##th": 691,
      "##te": 692,
      "##--": 693,
      "Ġch": 694,
      "##rac": 695,
      "##ue": 696,
      "##all": 697,
      "##ions": 698,
      "Ġpo": 699,
      "##age": 700,
      "##ber": 701,
      "##ud": 702,
      "##ort": 703,
      "##ated": 704,
      "##int": 705,
      "In": 706,
      "##ust": 707,
      "##end": 708,
      "ĠR": 709,
      "Ġme": 710,
      "##able": 711,
      "ĠF": 712,
      "ĠE": 713,
      "is": 714,
      "Ġu": 715,
      "##act": 716,
      ").": 717,
      "âĢĻ": 718,
      "ĠD": 719,
      "Ġ=": 720,
      "##ph": 721,
      "##{\\": 722,
      "ĠB": 723,
      "Ġhe": 724,
      "##ome": 725,
      "ĠL": 726,
      "Ġle": 727,
      "##du": 728,
      "##our": 729,
      "Ġqu": 730,
      "##xt": 731,
      "##ass": 732,
      "##unction": 733,
      "##ans": 734,
      "##ens": 735,
      "##ach": 736,
      "##ind": 737,
      "##rou": 738,
      "Ġdo": 739,
      "Ġres": 740,
      "##$$": 741,
      "Ġnum": 742,
      "Ġall": 743,
      "##ther": 744,
      "Ġcomp": 745,
      "Ġab": 746,
      "##fere": 747,
      "##ase": 748,
      "##ard": 749,
      "##ang": 750,
      "##ork": 751,
      "##ide": 752,
      "Ġim": 753,
      "##ff": 754,
      "##ime": 755,
      "Ġwill": 756,
      "##ari": 757,
      "Ġmod": 758,
      "##ame": 759,
      "##ap": 760,
      "##ener": 761,
      "math": 762,
      "ĠG": 763,
      "##ence": 764,
      "##ost": 765,
      "Ġequ": 766,
      "frac": 767,
      "Ġtr": 768,
      "##hen": 769,
      "##are": 770,
      "}}": 771,
      "Ġk": 772,
      "##ite": 773,
      "##ary": 774,
      "##ace": 775,
      "ĠN": 776,
      "##ign": 777,
      "##ition": 778,
      "##op": 779,
      "wh": 780,
      "##âĢ": 781,
      "Ġint": 782,
      "th": 783,
      "),": 784,
      "##out": 785,
      "##ance": 786,
      "##ics": 787,
      "Ġcl": 788,
      "Ġun": 789,
      "##ec": 790,
      "$\\": 791,
      "##ew": 792,
      "##ally": 793,
      "##ys": 794,
      "##erm": 795,
      "Ġcont": 796,
      "##ep": 797,
      "Ġfunction": 798,
      "Ġone": 799,
      "_{": 800,
      "##ire": 801,
      "This": 802,
      "##ak": 803,
      "##ata": 804,
      "}{": 805,
      "##ous": 806,
      "Ġ-": 807,
      "##ack": 808,
      "Ġval": 809,
      "or": 810,
      "ĠH": 811,
      "##eg": 812,
      "Ġwas": 813,
      "##here": 814,
      "##ast": 815,
      "##wo": 816,
      "Ġdif": 817,
      "...": 818,
      "Ġad": 819,
      "##ond": 820,
      "Ġpl": 821,
      "##cc": 822,
      "we": 823,
      "##ong": 824,
      "##ution": 825,
      "Ġsy": 826,
      "ĠĠ": 827,
      "##form": 828,
      "##ric": 829,
      "##gh": 830,
      "##ub": 831,
      "Ġmat": 832,
      "##__": 833,
      "##so": 834,
      "##ip": 835,
      "##ru": 836,
      "##cl": 837,
      "##ile": 838,
      "##ress": 839,
      "Ġsp": 840,
      "##oll": 841,
      "##ree": 842,
      "##ok": 843,
      "Ġout": 844,
      "Ġhas": 845,
      "Ġ+": 846,
      "##ord": 847,
      "##ents": 848,
      "##ors": 849,
      "Ġform": 850,
      "Ġob": 851,
      "##etw": 852,
      "##ext": 853,
      "to": 854,
      "Ġpre": 855,
      "We": 856,
      "but": 857,
      "Ġtwo": 858,
      "##ory": 859,
      "Ġsc": 860,
      "##eth": 861,
      "Ġsol": 862,
      "Ġar": 863,
      "##ose": 864,
      "##rib": 865,
      "##av": 866,
      "##ry": 867,
      "##ound": 868,
      "Ġif": 869,
      "Ġper": 870,
      "Ġj": 871,
      "}$": 872,
      "##ample": 873,
      "##vel": 874,
      "##ject": 875,
      "Ġmore": 876,
      "##put": 877,
      "Ġdis": 878,
      "Ġpart": 879,
      "##lect": 880,
      "Ġspe": 881,
      "##ike": 882,
      "Ġsome": 883,
      "Ġnumber": 884,
      "##cul": 885,
      "Ġdiffere": 886,
      "Ġother": 887,
      "Ġyour": 888,
      "Ġset": 889,
      "Ġver": 890,
      "##stem": 891,
      "##blem": 892,
      "##ram": 893,
      "Ġwhich": 894,
      "##ates": 895,
      "for": 896,
      "Ġsim": 897,
      "Ġany": 898,
      "##now": 899,
      "##ative": 900,
      "##ib": 901,
      "right": 902,
      "Ġ$": 903,
      "ĠO": 904,
      "ĠâĢ": 905,
      "Ġuse": 906,
      "If": 907,
      "ĠW": 908,
      "##hem": 909,
      "Ġtime": 910,
      "##ake": 911,
      "Ġmodel": 912,
      "##irst": 913,
      "Ġpoint": 914,
      "which": 915,
      "##aus": 916,
      ".,": 917,
      "It": 918,
      "##ook": 919,
      "Ġinter": 920,
      "##ces": 921,
      "##ear": 922,
      "##one": 923,
      "at": 924,
      "Ġthan": 925,
      "Ġdef": 926,
      "Ġwork": 927,
      "Ġdata": 928,
      "Ġup": 929,
      "st": 930,
      "Ġvari": 931,
      "##les": 932,
      "}\\": 933,
      "##eft": 934,
      "Ġ.": 935,
      "{\\": 936,
      "##ice": 937,
      "Ġco": 938,
      "Ġalso": 939,
      "##ility": 940,
      "Ġwould": 941,
      "##ink": 942,
      "Ġpos": 943,
      "##ollow": 944,
      "Ġgo": 945,
      "left": 946,
      "it": 947,
      "âĢĵ": 948,
      "Ġen": 949,
      "Ġthere": 950,
      "##ail": 951,
      "##----": 952,
      "Ġusing": 953,
      "##": 954,
      "Ġev": 955,
      "Ġsub": 956,
      "Ġdist": 957,
      "Ġ[": 958,
      "Ġapp": 959,
      "Ġproblem": 960,
      "##een": 961,
      "##ps": 962,
      "##ode": 963,
      "Ġabout": 964,
      "ĠJ": 965,
      "##ific": 966,
      "##nder": 967,
      "al": 968,
      "##ont": 969,
      "Ġused": 970,
      "Ġx": 971,
      "Ġonly": 972,
      "##etween": 973,
      "##port": 974,
      "^{": 975,
      "##ange": 976,
      "##row": 977,
      "##ĠĠĠĠĠĠĠĠ": 978,
      "Ġits": 979,
      "Ġman": 980,
      "##ons": 981,
      "Ġgener": 982,
      "Ġso": 983,
      "##ell": 984,
      "Ġeach": 985,
      "##ax": 986,
      "##plic": 987,
      "Ġknow": 988,
      "##cre": 989,
      "##alcul": 990,
      "as": 991,
      "Ġsystem": 992,
      "##ular": 993,
      "Ġline": 994,
      "##ual": 995,
      "For": 996,
      "Ġget": 997,
      "##ove": 998,
      "##ating": 999,
      "Ġfollow": 1000,
      "ĠU": 1001,
      "Ġdifferent": 1002,
      "Ġind": 1003,
      "Ġass": 1004,
      "##vi": 1005,
      "Ġbetween": 1006,
      "##ature": 1007,
      "Ġrel": 1008,
      "Ġtrans": 1009,
      "Ġlike": 1010,
      "Ġneed": 1011,
      "##ount": 1012,
      "Ġresult": 1013,
      "Ġfirst": 1014,
      "##ator": 1015,
      "Ġcor": 1016,
      "##rad": 1017,
      "##iven": 1018,
      "##ethod": 1019,
      "##ible": 1020,
      "##ments": 1021,
      "##cess": 1022,
      "##ob": 1023,
      "##ft": 1024,
      "##ues": 1025,
      "##raph": 1026,
      "##ser": 1027,
      "##ied": 1028,
      "##ays": 1029,
      "##ia": 1030,
      "Wh": 1031,
      "##ize": 1032,
      "##iel": 1033,
      "Ġdes": 1034,
      "##ov": 1035,
      "Ġshow": 1036,
      "##nce": 1037,
      "Ġam": 1038,
      "##ta": 1039,
      "##pect": 1040,
      "Ġno": 1041,
      "Ġhow": 1042,
      "Ġsame": 1043,
      "##uch": 1044,
      "Ġ&": 1045,
      "Ġover": 1046,
      "##ks": 1047,
      "Ġwhen": 1048,
      "##low": 1049,
      "Ġpar": 1050,
      "Ġadd": 1051,
      "of": 1052,
      "text": 1053,
      "##ient": 1054,
      "##imes": 1055,
      "##ruct": 1056,
      "Ġvalue": 1057,
      "##oth": 1058,
      "##resent": 1059,
      "##ne": 1060,
      "##ined": 1061,
      "Ġinto": 1062,
      "ĠV": 1063,
      "##old": 1064,
      "Ġwhat": 1065,
      "Ġph": 1066,
      "##urn": 1067,
      "Ġdet": 1068,
      "##ield": 1069,
      "##ause": 1070,
      "##its": 1071,
      "Ġexp": 1072,
      "##ings": 1073,
      "##ract": 1074,
      "##ough": 1075,
      "Ġthese": 1076,
      "Ġro": 1077,
      "Ġ'": 1078,
      "##ise": 1079,
      "##olog": 1080,
      "##ian": 1081,
      "##ater": 1082,
      "Ġconst": 1083,
      "##ased": 1084,
      "Ġap": 1085,
      "Ġcons": 1086,
      "Ġcomm": 1087,
      "Ġunder": 1088,
      "##estion": 1089,
      "Ġmy": 1090,
      "Ġcur": 1091,
      "##rm": 1092,
      "##sw": 1093,
      "Ġ{": 1094,
      "##ower": 1095,
      "Ġthey": 1096,
      "if": 1097,
      "##rix": 1098,
      "##tain": 1099,
      "##ix": 1100,
      "Ġ\"": 1101,
      "##ype": 1102,
      "}^": 1103,
      "##tt": 1104,
      "##der": 1105,
      "Ġeff": 1106,
      "##ption": 1107,
      "##ie": 1108,
      "##ma": 1109,
      "Ġexample": 1110,
      ")$": 1111,
      "Ġag": 1112,
      "Ġtheir": 1113,
      "##ced": 1114,
      "ĠK": 1115,
      "##vers": 1116,
      "##nal": 1117,
      "Ġrec": 1118,
      "Ġreg": 1119,
      "Ġfind": 1120,
      "##gy": 1121,
      "with": 1122,
      "##amet": 1123,
      "Ġstud": 1124,
      "##ability": 1125,
      "re": 1126,
      "ĠĠĠ": 1127,
      "Ġspec": 1128,
      "Ġacc": 1129,
      "mathb": 1130,
      "Ġjust": 1131,
      "##clud": 1132,
      "Ġshould": 1133,
      "Ġprodu": 1134,
      "##eng": 1135,
      "##itt": 1136,
      "How": 1137,
      "Ġdoes": 1138,
      "Ġmethod": 1139,
      "Ġmay": 1140,
      "$$\\": 1141,
      "##ict": 1142,
      "Ġwere": 1143,
      "Ġcomple": 1144,
      "##ss": 1145,
      "Ġcalcul": 1146,
      "##ically": 1147,
      "ĠâĢĵ": 1148,
      "##ning": 1149,
      "com": 1150,
      "##asure": 1151,
      "Ġappro": 1152,
      "}_": 1153,
      "##rt": 1154,
      "##hemat": 1155,
      "##als": 1156,
      "##ick": 1157,
      "Ġnew": 1158,
      "so": 1159,
      "Ġinte": 1160,
      "Ġthem": 1161,
      "An": 1162,
      "##ci": 1163,
      "##very": 1164,
      "##ole": 1165,
      "âĪ": 1166,
      "Ġbec": 1167,
      "Ġbeen": 1168,
      "Ġrep": 1169,
      "âĢľ": 1170,
      "##yp": 1171,
      "Ġour": 1172,
      "##ved": 1173,
      "Ġinst": 1174,
      "##ck": 1175,
      "##ark": 1176,
      "then": 1177,
      "Ġanal": 1178,
      "Ġact": 1179,
      "Ġfact": 1180,
      "##//": 1181,
      "##____": 1182,
      "Ġclass": 1183,
      "##arg": 1184,
      "Ġgiven": 1185,
      "##ational": 1186,
      "Ġgrou": 1187,
      "ex": 1188,
      "Ġinteg": 1189,
      "where": 1190,
      "âĢĿ": 1191,
      "##lo": 1192,
      "Ġthen": 1193,
      "Ġmult": 1194,
      "##==": 1195,
      "##enc": 1196,
      "ĠSt": 1197,
      "##play": 1198,
      "int": 1199,
      "Ġnon": 1200,
      "Ġwr": 1201,
      "##ince": 1202,
      "you": 1203,
      "Ġcase": 1204,
      "Ġsuch": 1205,
      "##ithm": 1206,
      "##bers": 1207,
      "Ġac": 1208,
      "Ġcol": 1209,
      "()": 1210,
      "Ġfollowing": 1211,
      "##omet": 1212,
      "Ġsign": 1213,
      "##ization": 1214,
      "Ġway": 1215,
      "##ever": 1216,
      "You": 1217,
      "##ctions": 1218,
      "Ġterm": 1219,
      "Ġequation": 1220,
      "Ġsm": 1221,
      "St": 1222,
      "##yle": 1223,
      "Ġsee": 1224,
      "##gor": 1225,
      "##ni": 1226,
      "Ġem": 1227,
      "Ġz": 1228,
      "##ities": 1229,
      "##ng": 1230,
      "##ee": 1231,
      "Ġpartic": 1232,
      "##iss": 1233,
      "##arge": 1234,
      "Ġmeasure": 1235,
      "##cept": 1236,
      "##fore": 1237,
      "##inal": 1238,
      "##hes": 1239,
      "##fter": 1240,
      "##ute": 1241,
      "##...": 1242,
      "##ote": 1243,
      "Ġext": 1244,
      "dis": 1245,
      "##pert": 1246,
      "Ġstr": 1247,
      "Ġpr": 1248,
      "Ġansw": 1249,
      "So": 1250,
      "##hed": 1251,
      "##red": 1252,
      "Ġcall": 1253,
      "##irc": 1254,
      "Ġsur": 1255,
      "end": 1256,
      "##ines": 1257,
      "$.": 1258,
      "##rough": 1259,
      "Ġdire": 1260,
      "Ġcould": 1261,
      "pro": 1262,
      "##rent": 1263,
      "##io": 1264,
      "##line": 1265,
      "Ġpa": 1266,
      "##ug": 1267,
      "Ġstate": 1268,
      "##ech": 1269,
      "##ized": 1270,
      "Ġwant": 1271,
      "##ron": 1272,
      "##ential": 1273,
      "##ock": 1274,
      "Ġinv": 1275,
      "##formation": 1276,
      "Ġprob": 1277,
      "##ument": 1278,
      "##pos": 1279,
      "Ġser": 1280,
      "Ġprov": 1281,
      "Ġtest": 1282,
      "}$$": 1283,
      "Ex": 1284,
      "##ength": 1285,
      "There": 1286,
      "Ġvery": 1287,
      "##itive": 1288,
      "Ġele": 1289,
      "##ots": 1290,
      "##ages": 1291,
      "##ctor": 1292,
      "##ym": 1293,
      "Ġelect": 1294,
      "mathrm": 1295,
      "Ġve": 1296,
      "Ġ$$": 1297,
      "Ġener": 1298,
      "ĠIn": 1299,
      "##own": 1300,
      "Ġsec": 1301,
      "Ġbl": 1302,
      "Ġvalues": 1303,
      "Ġprocess": 1304,
      "(\\": 1305,
      "##ish": 1306,
      "##ually": 1307,
      "Ġfield": 1308,
      "##ray": 1309,
      "Ġdec": 1310,
      "##ex": 1311,
      "##ases": 1312,
      "Ġthink": 1313,
      "##ild": 1314,
      "##yn": 1315,
      "Ġmake": 1316,
      "that": 1317,
      "##ral": 1318,
      "Ġbut": 1319,
      "Ġi": 1320,
      "##tern": 1321,
      ")}": 1322,
      "Ġmost": 1323,
      "##inite": 1324,
      "Ġest": 1325,
      "What": 1326,
      "Ġdistrib": 1327,
      "##ampl": 1328,
      "Ġposs": 1329,
      "##ysis": 1330,
      "##ik": 1331,
      "Ġboth": 1332,
      "##ull": 1333,
      "##ting": 1334,
      "))": 1335,
      "Pro": 1336,
      "Ġquestion": 1337,
      "Ġmany": 1338,
      "Ġeffect": 1339,
      "Ġcorre": 1340,
      "Ġlook": 1341,
      "Ġorder": 1342,
      "##elf": 1343,
      "Ġoper": 1344,
      "Ġinf": 1345,
      "##ify": 1346,
      "Ġrequ": 1347,
      "Ġrem": 1348,
      "Ġwell": 1349,
      "##agn": 1350,
      "##ox": 1351,
      "Re": 1352,
      "##ider": 1353,
      "To": 1354,
      "##cal": 1355,
      "Ġent": 1356,
      "##ructure": 1357,
      "Ġenergy": 1358,
      "Ġtri": 1359,
      "by": 1360,
      "Ġwhere": 1361,
      "Ġdi": 1362,
      "##....": 1363,
      "##ets": 1364,
      "##ension": 1365,
      "Ġ@": 1366,
      "##gram": 1367,
      "Ġhigh": 1368,
      "##igure": 1369,
      "$,": 1370,
      "##ier": 1371,
      "Ġdisc": 1372,
      "Ġreal": 1373,
      "As": 1374,
      "##âĪ": 1375,
      "##oint": 1376,
      "##style": 1377,
      "Ġspace": 1378,
      "##aw": 1379,
      "Ġfe": 1380,
      "Ġparamet": 1381,
      "##tic": 1382,
      "ar": 1383,
      "sq": 1384,
      "##gorithm": 1385,
      "##ered": 1386,
      "Ġhere": 1387,
      "do": 1388,
      "##ism": 1389,
      "Al": 1390,
      "##utions": 1391,
      "Ġdon": 1392,
      "display": 1393,
      "Ġpost": 1394,
      "##ubl": 1395,
      "://": 1396,
      "Ġhel": 1397,
      "##ource": 1398,
      "are": 1399,
      "Ġmean": 1400,
      "Ġobject": 1401,
      "##egin": 1402,
      "Ġnumbers": 1403,
      "Ġed": 1404,
      "##app": 1405,
      "Ġsolution": 1406,
      "##up": 1407,
      "##err": 1408,
      "Ġcode": 1409,
      "Ġevery": 1410,
      "Ġtra": 1411,
      "Ġatt": 1412,
      "Ġthrough": 1413,
      "ĠQ": 1414,
      "Ġgraph": 1415,
      "##ency": 1416,
      "ĠPro": 1417,
      ")(": 1418,
      "Ġcomput": 1419,
      "an": 1420,
      "##ann": 1421,
      "Ġke": 1422,
      "Ġ|": 1423,
      "##ident": 1424,
      "Ġincre": 1425,
      "##--------": 1426,
      "Ġfl": 1427,
      "##ume": 1428,
      "displaystyle": 1429,
      "##andom": 1430,
      "sqrt": 1431,
      "Ġright": 1432,
      "##ology": 1433,
      "Ġsmall": 1434,
      "begin": 1435,
      "con": 1436,
      "Com": 1437,
      "Ġresults": 1438,
      "Ġtop": 1439,
      "##eta": 1440,
      "Ġdesc": 1441,
      "Ch": 1442,
      "##AT": 1443,
      "##angle": 1444,
      "##arch": 1445,
      "ph": 1446,
      "##ables": 1447,
      "this": 1448,
      "ĠX": 1449,
      "##ression": 1450,
      "##ero": 1451,
      "Ġanswer": 1452,
      "Ġabove": 1453,
      "##itions": 1454,
      "Ġmin": 1455,
      "##val": 1456,
      "##pr": 1457,
      "Ġmulti": 1458,
      "ĠĠĠĠĠ": 1459,
      "Ġsecond": 1460,
      "Ġmatrix": 1461,
      "Ġmuch": 1462,
      "Ġopt": 1463,
      "Let": 1464,
      "##round": 1465,
      "ĠY": 1466,
      "Ġcond": 1467,
      "##ule": 1468,
      "##fic": 1469,
      "Ġbu": 1470,
      "ch": 1471,
      "##ars": 1472,
      "##eo": 1473,
      "But": 1474,
      "##ner": 1475,
      "##ives": 1476,
      "}^{": 1477,
      "##other": 1478,
      "on": 1479,
      "Ġobser": 1480,
      "Ġexpl": 1481,
      "##andard": 1482,
      "Ġgeneral": 1483,
      "##fer": 1484,
      "##ulation": 1485,
      "Ġcre": 1486,
      "Ġfunctions": 1487,
      "Ġimp": 1488,
      "##etic": 1489,
      "##bl": 1490,
      "##iew": 1491,
      "}_{": 1492,
      "Ġloc": 1493,
      "##ides": 1494,
      "##ane": 1495,
      "Ġlong": 1496,
      "##geb": 1497,
      "ĠThe": 1498,
      "},": 1499,
      "Ġstart": 1500,
      "Ġestim": 1501,
      "##olution": 1502,
      "Ġ,": 1503,
      "Ġbecause": 1504,
      "Ġnow": 1505,
      "Ġsupp": 1506,
      "##pen": 1507,
      "##ward": 1508,
      ")=": 1509,
      "##**": 1510,
      "##dd": 1511,
      "##ural": 1512,
      "Ġread": 1513,
      "Ġquant": 1514,
      "##aract": 1515,
      "##read": 1516,
      "Ġsum": 1517,
      "Ġend": 1518,
      "##sc": 1519,
      "Ġcurrent": 1520,
      "##face": 1521,
      "pi": 1522,
      "cd": 1523,
      "times": 1524,
      "\",": 1525,
      "##ists": 1526,
      "##ead": 1527,
      "Ġcontain": 1528,
      "##pha": 1529,
      "Ġtem": 1530,
      "Ġtheory": 1531,
      "Ġfile": 1532,
      "##ank": 1533,
      "Ġrad": 1534,
      "##ified": 1535,
      "##¿½": 1536,
      "##inu": 1537,
      "Ġtype": 1538,
      "sh": 1539,
      "##rol": 1540,
      "##erest": 1541,
      "Ġexper": 1542,
      "Ġimport": 1543,
      "##ilar": 1544,
      "Ġpossible": 1545,
      "##uth": 1546,
      "Ġ}": 1547,
      "##uring": 1548,
      "##cent": 1549,
      "Ġalgorithm": 1550,
      "##ormal": 1551,
      "Ġsing": 1552,
      "htt": 1553,
      "Ġthree": 1554,
      "Ġmass": 1555,
      "Ġinformation": 1556,
      "Ġconf": 1557,
      "##ven": 1558,
      "Ġmust": 1559,
      "Ġfil": 1560,
      "##of": 1561,
      "Ġbound": 1562,
      "there": 1563,
      "##stand": 1564,
      "Ġinclud": 1565,
      "##imit": 1566,
      "##da": 1567,
      "Ġstructure": 1568,
      "##amples": 1569,
      "##amb": 1570,
      "Ġpropert": 1571,
      "ĠCh": 1572,
      "##ference": 1573,
      "Ġang": 1574,
      "Ġformul": 1575,
      "Ġeven": 1576,
      "Ġerr": 1577,
      "Ġperform": 1578,
      "Ġrepresent": 1579,
      "##uss": 1580,
      "Ġrun": 1581,
      "##ER": 1582,
      "})": 1583,
      "##ynam": 1584,
      "Ġback": 1585,
      "):": 1586,
      "##orem": 1587,
      "Ġdep": 1588,
      "Ġlinear": 1589,
      "Ġchange": 1590,
      "Ġhelp": 1591,
      "Ġ$\\": 1592,
      "And": 1593,
      "}(": 1594,
      "le": 1595,
      "Ġequations": 1596,
      "##akes": 1597,
      "##ross": 1598,
      "##etwork": 1599,
      "##atic": 1600,
      "Ġbas": 1601,
      "Ġpoints": 1602,
      "##imum": 1603,
      "##vious": 1604,
      "Ġder": 1605,
      "res": 1606,
      "Ġgre": 1607,
      "##velop": 1608,
      "part": 1609,
      "##imal": 1610,
      "Ġgood": 1611,
      "##rodu": 1612,
      "Ġprogram": 1613,
      "##ration": 1614,
      "Ġgroup": 1615,
      "âĪĴ": 1616,
      "##verse": 1617,
      "Ġhad": 1618,
      "Ġfound": 1619,
      "##oci": 1620,
      "Ġdeterm": 1621,
      "##par": 1622,
      "Ġmet": 1623,
      ")\\": 1624,
      "Ġlevel": 1625,
      "##ows": 1626,
      "Ġeas": 1627,
      "##aking": 1628,
      "##sing": 1629,
      "Ġet": 1630,
      "##pond": 1631,
      "##imension": 1632,
      "Qu": 1633,
      "Ġinput": 1634,
      "Ġcent": 1635,
      "Ġrat": 1636,
      "##gebra": 1637,
      ");": 1638,
      "Ġlear": 1639,
      "##ears": 1640,
      "##ision": 1641,
      "Ġbased": 1642,
      "Ġvol": 1643,
      "Ġav": 1644,
      "##eb": 1645,
      "##athemat": 1646,
      "Ġanalysis": 1647,
      "##aces": 1648,
      "##au": 1649,
      "Ġdistribution": 1650,
      "##lass": 1651,
      "Ġlist": 1652,
      "Ġafter": 1653,
      "Ġsym": 1654,
      "mathbb": 1655,
      "##ins": 1656,
      "ĠĠĠĠĠĠĠĠĠ": 1657,
      "alpha": 1658,
      "sum": 1659,
      "Ġconstant": 1660,
      "mathbf": 1661,
      "Ġret": 1662,
      "Ġcomplex": 1663,
      "Ġcirc": 1664,
      "##ful": 1665,
      "##ade": 1666,
      "Ġvector": 1667,
      "##plement": 1668,
      "##quare": 1669,
      "##eople": 1670,
      "Ġpower": 1671,
      "Ġide": 1672,
      "##ern": 1673,
      "Ġlog": 1674,
      "##ves": 1675,
      "##ood": 1676,
      "Ġproduct": 1677,
      "Ġlength": 1678,
      "ĊĊĊ": 1679,
      "##ection": 1680,
      "Ġlarge": 1681,
      "ĠÂ": 1682,
      "Ġinterest": 1683,
      "Ġpresent": 1684,
      "Ġident": 1685,
      "ĠCom": 1686,
      "On": 1687,
      "Ġequal": 1688,
      "Sh": 1689,
      "Ġthose": 1690,
      "##requ": 1691,
      "Ġ#": 1692,
      "##elta": 1693,
      "##bol": 1694,
      "Ġrate": 1695,
      "Ġcharact": 1696,
      "Ġstudy": 1697,
      "##estions": 1698,
      "##atist": 1699,
      "##ired": 1700,
      "Ġcalled": 1701,
      "##heck": 1702,
      "However": 1703,
      "Ġ:": 1704,
      "##ertain": 1705,
      "##ivity": 1706,
      "Ġoutput": 1707,
      "Ġunderstand": 1708,
      "Ġbeing": 1709,
      "Ġ<": 1710,
      "Ġpred": 1711,
      "##pec": 1712,
      "##lear": 1713,
      ")^": 1714,
      "##und": 1715,
      "##epend": 1716,
      "##ving": 1717,
      "##perature": 1718,
      "Ġsize": 1719,
      "##rit": 1720,
      "Ġdown": 1721,
      "##els": 1722,
      "Ġdid": 1723,
      "##atrix": 1724,
      "Ġtyp": 1725,
      "##rid": 1726,
      "##ily": 1727,
      "##ton": 1728,
      "##que": 1729,
      "Ġrandom": 1730,
      "##raw": 1731,
      "Ġsequ": 1732,
      "im": 1733,
      "Ġstep": 1734,
      "Ġdirect": 1735,
      "Ġtake": 1736,
      "Ġpoly": 1737,
      "When": 1738,
      "##uc": 1739,
      "##ysics": 1740,
      "theta": 1741,
      "##ness": 1742,
      "Ġ)": 1743,
      "Ġwor": 1744,
      "Ġlo": 1745,
      "##ivid": 1746,
      "##ium": 1747,
      "Ġsingle": 1748,
      "##ither": 1749,
      "##rop": 1750,
      "Ġ>": 1751,
      "Ġapplic": 1752,
      "##rans": 1753,
      "##ason": 1754,
      "Ġstandard": 1755,
      "##ometh": 1756,
      "##ocument": 1757,
      "Ġarg": 1758,
      "Con": 1759,
      "Ġsay": 1760,
      "##etter": 1761,
      "Ġcorrect": 1762,
      "##omething": 1763,
      "Ġcar": 1764,
      "Ġless": 1765,
      "##respond": 1766,
      "Ġdevelop": 1767,
      "Ġvers": 1768,
      "Ġscal": 1769,
      "##pace": 1770,
      "##ted": 1771,
      "##ining": 1772,
      "Ġbelow": 1773,
      "pl": 1774,
      "Ġhy": 1775,
      "Ġmathemat": 1776,
      "##ense": 1777,
      "##view": 1778,
      "##xim": 1779,
      "##ript": 1780,
      "Ġsimple": 1781,
      "Ġtech": 1782,
      "Ġmight": 1783,
      "Ġchang": 1784,
      "##ts": 1785,
      "Ġredu": 1786,
      "Ġtry": 1787,
      "##ification": 1788,
      "Ġmain": 1789,
      "Ġterms": 1790,
      "Ġorig": 1791,
      "##ambda": 1792,
      "Ġtot": 1793,
      "##ention": 1794,
      "Then": 1795,
      "##iod": 1796,
      "##action": 1797,
      "##ality": 1798,
      "cdot": 1799,
      "##oy": 1800,
      "Ġmeans": 1801,
      "##oid": 1802,
      "Ġprobability": 1803,
      "qu": 1804,
      "##ten": 1805,
      "Ġdescrib": 1806,
      "##ool": 1807,
      "Ġhand": 1808,
      "Ġgu": 1809,
      "Ġproblems": 1810,
      "Ġmax": 1811,
      "##eomet": 1812,
      "Ġobtain": 1813,
      "##itial": 1814,
      "Ġstill": 1815,
      "Ġvariable": 1816,
      "Ġ\\\\": 1817,
      "##plied": 1818,
      "}{\\": 1819,
      "],": 1820,
      "##mer": 1821,
      "Ġdepend": 1822,
      "Ġmagn": 1823,
      "}=": 1824,
      "${\\": 1825,
      "Ġarea": 1826,
      "Ġzero": 1827,
      "Ġlimit": 1828,
      "##omial": 1829,
      "##oss": 1830,
      "from": 1831,
      "Ġpaper": 1832,
      "doi": 1833,
      "ll": 1834,
      "Ġhis": 1835,
      "##ensity": 1836,
      "Ġtext": 1837,
      "ve": 1838,
      "##ways": 1839,
      "##ior": 1840,
      "##ault": 1841,
      "##ecause": 1842,
      "def": 1843,
      "Ġmodels": 1844,
      "Ġformula": 1845,
      "Ph": 1846,
      "sin": 1847,
      "Zbl": 1848,
      "Ġcell": 1849,
      "Ġdefined": 1850,
      "Ġderiv": 1851,
      "ĠZ": 1852,
      "##olar": 1853,
      "Ġpeople": 1854,
      "Ġtemperature": 1855,
      "##alk": 1856,
      "be": 1857,
      "##igma": 1858,
      "Ġmon": 1859,
      "##raction": 1860,
      "such": 1861,
      "##led": 1862,
      "Ġnetwork": 1863,
      "Ġseem": 1864,
      "val": 1865,
      "##====": 1866,
      "##met": 1867,
      "##pon": 1868,
      "Ġword": 1869,
      "Ġ*": 1870,
      "##ited": 1871,
      "Ġsimilar": 1872,
      "##}$": 1873,
      "##gg": 1874,
      "##aps": 1875,
      "##verage": 1876,
      "#####": 1877,
      "##arrow": 1878,
      "##ring": 1879,
      "not": 1880,
      "That": 1881,
      "##iment": 1882,
      "##bit": 1883,
      "Ġpredict": 1884,
      "Ġbefore": 1885,
      "##ember": 1886,
      "Ġcharacter": 1887,
      "Ġoff": 1888,
      "##ately": 1889,
      "ĠEx": 1890,
      "beta": 1891,
      "Now": 1892,
      "Ġconsider": 1893,
      "##itud": 1894,
      "Ġpat": 1895,
      "Ġinc": 1896,
      "Ġsystems": 1897,
      "Ġerror": 1898,
      "##ators": 1899,
      "Ġvariables": 1900,
      "##ash": 1901,
      "Ġanother": 1902,
      "Ġparticular": 1903,
      "Ġins": 1904,
      "##istic": 1905,
      "##ystem": 1906,
      "##ices": 1907,
      "Ġpositive": 1908,
      "Ġsomething": 1909,
      "##ixed": 1910,
      "##osed": 1911,
      "cos": 1912,
      "Ġcomb": 1913,
      "##ival": 1914,
      "Ġconver": 1915,
      "âĢĶ": 1916,
      "##inition": 1917,
      "Ġ##": 1918,
      "org": 1919,
      "##con": 1920,
      "Ġdesign": 1921,
      "##ailable": 1922,
      "Ġimportant": 1923,
      "Ġhig": 1924,
      "##ively": 1925,
      "##not": 1926,
      "Ġtotal": 1927,
      "##lease": 1928,
      "col": 1929,
      "Ġfrequ": 1930,
      "Ġref": 1931,
      "Ġwithout": 1932,
      "Ġleast": 1933,
      "Ġbeh": 1934,
      "##ably": 1935,
      "Here": 1936,
      "##ared": 1937,
      "##ert": 1938,
      "##versity": 1939,
      "Ġexpect": 1940,
      "Ġlow": 1941,
      "##umn": 1942,
      "Ġwater": 1943,
      "Ġradi": 1944,
      "Ġcho": 1945,
      "##ordin": 1946,
      "et": 1947,
      "##ï¿½": 1948,
      "Ġ...": 1949,
      "##________": 1950,
      "Ġtre": 1951,
      "##ler": 1952,
      "Ġel": 1953,
      "mod": 1954,
      "##nces": 1955,
      "Ġdiscuss": 1956,
      "##eturn": 1957,
      "##ournal": 1958,
      "Ġsurface": 1959,
      "Ġdistance": 1960,
      "Ġuni": 1961,
      "Ġcount": 1962,
      "un": 1963,
      ".)": 1964,
      "log": 1965,
      "Ġagain": 1966,
      "##âĢĿ": 1967,
      "Ġaddition": 1968,
      "pr": 1969,
      "Ġsupport": 1970,
      "--": 1971,
      "Ġcorrespond": 1972,
      "Is": 1973,
      ")$$": 1974,
      "Ġexist": 1975,
      "##Ã©": 1976,
      "Ġwho": 1977,
      "##ublic": 1978,
      "##set": 1979,
      "##otential": 1980,
      "mu": 1981,
      "##gen": 1982,
      "##ibr": 1983,
      "##ON": 1984,
      "##anc": 1985,
      "##ES": 1986,
      "##angu": 1987,
      "##ected": 1988,
      "Ġreally": 1989,
      "Ġseries": 1990,
      "Ġreturn": 1991,
      "Ġocc": 1992,
      "em": 1993,
      "Ġshown": 1994,
      "##iron": 1995,
      "Ġmade": 1996,
      "##anks": 1997,
      "Ġlight": 1998,
      "Ġelement": 1999,
      "Ġbetter": 2000,
      "Ġapproach": 2001,
      "align": 2002,
      "Ġra": 2003,
      "##ega": 2004,
      "##ames": 2005,
      "##onal": 2006,
      "Ġcompon": 2007,
      "##ackage": 2008,
      "ĠĠĠĠ": 2009,
      "Ġsl": 2010,
      "Ġpass": 2011,
      "Ġneg": 2012,
      "Ġcost": 2013,
      "Ġsample": 2014,
      "Ġwave": 2015,
      "Ġknown": 2016,
      "##aving": 2017,
      "sub": 2018,
      "Ġaround": 2019,
      "##ape": 2020,
      "Ġfactor": 2021,
      "Ġapproxim": 2022,
      "\\\\": 2023,
      "##less": 2024,
      "Ġcommon": 2025,
      "Ġlast": 2026,
      "##ware": 2027,
      "##urther": 2028,
      "over": 2029,
      "Ġwithin": 2030,
      "##ences": 2031,
      "how": 2032,
      "lambda": 2033,
      "##erial": 2034,
      "Ġalways": 2035,
      "partial": 2036,
      "These": 2037,
      "##ene": 2038,
      "Ġcontrol": 2039,
      "Ġtrue": 2040,
      "##orph": 2041,
      "##effic": 2042,
      "##bs": 2043,
      "##inary": 2044,
      "Ġrange": 2045,
      "Ġgive": 2046,
      "##ination": 2047,
      "mathcal": 2048,
      "Ġlet": 2049,
      "##ayer": 2050,
      "Ġexact": 2051,
      "##mega": 2052,
      "##ody": 2053,
      "Ġsquare": 2054,
      "##amma": 2055,
      "##fty": 2056,
      "Ġsa": 2057,
      "##ering": 2058,
      "Ġgra": 2059,
      "Ġcap": 2060,
      "Ġspect": 2061,
      "Ġfree": 2062,
      "##ters": 2063,
      "##hether": 2064,
      "##AR": 2065,
      "one": 2066,
      "Ġpath": 2067,
      "infty": 2068,
      "##oh": 2069,
      "::": 2070,
      "Ġparameters": 2071,
      "min": 2072,
      "##ey": 2073,
      "Ġpop": 2074,
      "##yth": 2075,
      "Ġassum": 2076,
      "Ġleft": 2077,
      "##icient": 2078,
      "##ience": 2079,
      "##ants": 2080,
      "##arm": 2081,
      "##ourse": 2082,
      "##ependent": 2083,
      "Ġpers": 2084,
      "Ġkey": 2085,
      "Note": 2086,
      "Ġthough": 2087,
      "Ġproperties": 2088,
      "Ġfew": 2089,
      "ĊĊĠ": 2090,
      "Ġmot": 2091,
      "${": 2092,
      "Ġnormal": 2093,
      "Ġperiod": 2094,
      "Ġimage": 2095,
      "Ġside": 2096,
      "##inuous": 2097,
      "ĠâĪ": 2098,
      "Ġopen": 2099,
      "Ġcy": 2100,
      "Ġinitial": 2101,
      "Ġreason": 2102,
      "Ġdifference": 2103,
      "ind": 2104,
      "##olds": 2105,
      "##IN": 2106,
      "##ients": 2107,
      "Ġavailable": 2108,
      "^{-": 2109,
      "Ġaut": 2110,
      "].": 2111,
      "see": 2112,
      "Ġ/": 2113,
      "##umber": 2114,
      "Ġatom": 2115,
      "No": 2116,
      "ĠPh": 2117,
      "per": 2118,
      "##df": 2119,
      "Ġcomplete": 2120,
      "Ġmethods": 2121,
      "when": 2122,
      "Ġproject": 2123,
      "=\\": 2124,
      "Ġflow": 2125,
      "Ġdom": 2126,
      "##nomial": 2127,
      "##any": 2128,
      "Ġname": 2129,
      "_{\\": 2130,
      "Ġelements": 2131,
      "Ġimplement": 2132,
      "ĠMathemat": 2133,
      ",\\": 2134,
      "ĠAl": 2135,
      "Ġdem": 2136,
      "',": 2137,
      "Ġpotential": 2138,
      "Ġgl": 2139,
      "##ances": 2140,
      "##wn": 2141,
      "Ġrest": 2142,
      "Ġfeature": 2143,
      "##atter": 2144,
      "##ided": 2145,
      "Ġwhy": 2146,
      "##niversity": 2147,
      "##atch": 2148,
      "##ah": 2149,
      "##ope": 2150,
      "Ġsure": 2151,
      "all": 2152,
      "##ological": 2153,
      "Ġprevious": 2154,
      "##lection": 2155,
      "cm": 2156,
      "Ġfinite": 2157,
      "Ġdeg": 2158,
      "}}}": 2159,
      "Ġtheorem": 2160,
      "Ġunit": 2161,
      "Ġforce": 2162,
      "##hip": 2163,
      "Ġsignific": 2164,
      "}}\\": 2165,
      "##get": 2166,
      "Ġmem": 2167,
      "Ġsolutions": 2168,
      "Ġbook": 2169,
      "Ġpair": 2170,
      "##duct": 2171,
      "Since": 2172,
      "Ġsequence": 2173,
      "Ġcou": 2174,
      "Ġtoo": 2175,
      "##man": 2176,
      "##way": 2177,
      "array": 2178,
      "ĠQu": 2179,
      "Ġweight": 2180,
      "##ains": 2181,
      "##onst": 2182,
      "##vice": 2183,
      "Ġsource": 2184,
      "Ġeither": 2185,
      "##itude": 2186,
      "##equ": 2187,
      "##opy": 2188,
      "##ished": 2189,
      "Ġthings": 2190,
      "##stract": 2191,
      "Ġcheck": 2192,
      "me": 2193,
      "Or": 2194,
      "Ġworks": 2195,
      "Ġdetail": 2196,
      "##usion": 2197,
      "Ġhigher": 2198,
      "Ġcertain": 2199,
      "Ġlink": 2200,
      "no": 2201,
      "Ġbest": 2202,
      "ĠâĢľ": 2203,
      "Ġvis": 2204,
      "##over": 2205,
      "##omm": 2206,
      "Ġhapp": 2207,
      "pm": 2208,
      "##imensional": 2209,
      "##abel": 2210,
      "##viron": 2211,
      "##ands": 2212,
      "##rate": 2213,
      "Ġmaterial": 2214,
      "Ġversion": 2215,
      "Ġappe": 2216,
      "Ġax": 2217,
      "##lation": 2218,
      "Ġalgebra": 2219,
      "Ġview": 2220,
      "##eed": 2221,
      "##air": 2222,
      "By": 2223,
      "data": 2224,
      "Ġartic": 2225,
      "Ġdone": 2226,
      "##thing": 2227,
      "##tical": 2228,
      "df": 2229,
      "Ġsit": 2230,
      "##urs": 2231,
      "cont": 2232,
      "Ġabs": 2233,
      "##oot": 2234,
      "Ġspeed": 2235,
      "Ġshe": 2236,
      "##chan": 2237,
      "##gan": 2238,
      "Int": 2239,
      "can": 2240,
      "Ġwrite": 2241,
      "##oment": 2242,
      "One": 2243,
      "Ġsolve": 2244,
      "Ġquestions": 2245,
      "##{{": 2246,
      "Ġangle": 2247,
      "##odes": 2248,
      "##lu": 2249,
      "Ġrese": 2250,
      "Ġamount": 2251,
      "Ġgoing": 2252,
      "\")": 2253,
      "Post": 2254,
      "Ġconditions": 2255,
      "##alle": 2256,
      "https": 2257,
      "Ġduring": 2258,
      "Ġmark": 2259,
      "Math": 2260,
      "Ġdiag": 2261,
      "##text": 2262,
      "Ġâ": 2263,
      "Ġparameter": 2264,
      "##ures": 2265,
      "##roup": 2266,
      "Ġcoeffic": 2267,
      "Ġlower": 2268,
      "Ġcoordin": 2269,
      "##lying": 2270,
      "##esc": 2271,
      "Ġnext": 2272,
      "##pre": 2273,
      "cl": 2274,
      "##stit": 2275,
      "##idth": 2276,
      "$(": 2277,
      "Ġgeomet": 2278,
      "because": 2279,
      "Ġpage": 2280,
      "Ġdue": 2281,
      "##AS": 2282,
      "##wise": 2283,
      "Ġproof": 2284,
      "Ġmechan": 2285,
      "Ġaverage": 2286,
      "Ġable": 2287,
      "Ġassoci": 2288,
      "##astic": 2289,
      "Ġfram": 2290,
      "Ġhard": 2291,
      "##ocity": 2292,
      "Ġfigure": 2293,
      "Ġindic": 2294,
      "ob": 2295,
      "Ġbit": 2296,
      "sigma": 2297,
      "Ġcourse": 2298,
      "Ġ$$\\": 2299,
      "Ġfour": 2300,
      "##ission": 2301,
      "##eq": 2302,
      "}+": 2303,
      "Ġstatist": 2304,
      "Ġpress": 2305,
      "At": 2306,
      "##inally": 2307,
      "Ġlead": 2308,
      "##AL": 2309,
      "->": 2310,
      "##ccess": 2311,
      "Ġlines": 2312,
      "All": 2313,
      "##icro": 2314,
      "##ector": 2315,
      "Ġintrodu": 2316,
      "Ġflu": 2317,
      "##........": 2318,
      "Ġdat": 2319,
      "Ġimpro": 2320,
      "Ġequival": 2321,
      "they": 2322,
      "Ġbel": 2323,
      "##ilon": 2324,
      "Ġbi": 2325,
      "Ġlangu": 2326,
      "Ġask": 2327,
      "##att": 2328,
      "##aj": 2329,
      "Ġobserv": 2330,
      "Ġsugg": 2331,
      "##inear": 2332,
      "Ġspecific": 2333,
      "Ġexperiment": 2334,
      "Ġte": 2335,
      "Ġwhether": 2336,
      "has": 2337,
      "Ġiss": 2338,
      "##alu": 2339,
      "##vant": 2340,
      "Ġcondition": 2341,
      "includ": 2342,
      "Ġtable": 2343,
      "##ready": 2344,
      "Ġsection": 2345,
      "en": 2346,
      "Ab": 2347,
      "Ġown": 2348,
      "set": 2349,
      "##psilon": 2350,
      "##rack": 2351,
      "Ġdefinition": 2352,
      "##apter": 2353,
      "##ouble": 2354,
      "Ġdoesn": 2355,
      "Ġnumer": 2356,
      "Find": 2357,
      "Ġquantum": 2358,
      "Ġstre": 2359,
      "##itten": 2360,
      "Ġtimes": 2361,
      "Ġtool": 2362,
      "Ġbuild": 2363,
      "Ġvel": 2364,
      "ĠSch": 2365,
      "Ġmed": 2366,
      "Ġdensity": 2367,
      "ĠRe": 2368,
      "Ġsepar": 2369,
      "Ġshort": 2370,
      "Ġsince": 2371,
      "##ently": 2372,
      "(\"": 2373,
      "##ially": 2374,
      "Ġnegative": 2375,
      "Ġallow": 2376,
      "Ġoriginal": 2377,
      "Ġactually": 2378,
      "..": 2379,
      "Ġenc": 2380,
      "##place": 2381,
      "Ġlocal": 2382,
      "Ġturn": 2383,
      "##crete": 2384,
      "##upp": 2385,
      "Ġmultiple": 2386,
      "##rain": 2387,
      "Ġmole": 2388,
      "Ġcolumn": 2389,
      "Ġpolynomial": 2390,
      "Ġrelative": 2391,
      "Ġpric": 2392,
      "âĢĺ": 2393,
      "He": 2394,
      "Ġinvest": 2395,
      "Ġdiv": 2396,
      "##itle": 2397,
      "##plies": 2398,
      "##rr": 2399,
      "ĠTh": 2400,
      "Ġsignificant": 2401,
      "$-": 2402,
      "Ġsever": 2403,
      "##atural": 2404,
      "##cience": 2405,
      "Ġexpress": 2406,
      "##idence": 2407,
      "Ġdynam": 2408,
      "##ply": 2409,
      "##OR": 2410,
      "Ġrespect": 2411,
      "##erc": 2412,
      "##ott": 2413,
      "Ġbehav": 2414,
      "##ording": 2415,
      "}}$": 2416,
      "out": 2417,
      "##ython": 2418,
      "Ġlarg": 2419,
      "##ules": 2420,
      "Ġprec": 2421,
      "Ġclear": 2422,
      "##arth": 2423,
      "time": 2424,
      "##dro": 2425,
      "Ġalready": 2426,
      "Ġidea": 2427,
      "what": 2428,
      "Ġprovide": 2429,
      "##asing": 2430,
      "Ġput": 2431,
      "Ġear": 2432,
      "##uthor": 2433,
      "Ġpract": 2434,
      "Ġprof": 2435,
      "##IT": 2436,
      "Ġchanges": 2437,
      "##az": 2438,
      "##iting": 2439,
      "Un": 2440,
      "ĊĠ": 2441,
      "Ġfrequency": 2442,
      "##ety": 2443,
      "Ġplan": 2444,
      "##earch": 2445,
      "Ġposition": 2446,
      "since": 2447,
      "Ġrelated": 2448,
      "ĠÃ": 2449,
      "http": 2450,
      "Ġstrong": 2451,
      "Ġyear": 2452,
      "Ġdirection": 2453,
      "while": 2454,
      "Ġpri": 2455,
      "Ġseveral": 2456,
      "##ges": 2457,
      "##igen": 2458,
      "Ġevalu": 2459,
      "Ġago": 2460,
      "dx": 2461,
      "Ġlearning": 2462,
      "##ird": 2463,
      "##ital": 2464,
      "##be": 2465,
      "Ġworld": 2466,
      "Ġconn": 2467,
      "##EE": 2468,
      "##^{": 2469,
      "##eX": 2470,
      "Ġratio": 2471,
      "##ries": 2472,
      "Ġcannot": 2473,
      "Ġexplain": 2474,
      "based": 2475,
      "They": 2476,
      "##icle": 2477,
      "Ġenough": 2478,
      "\".": 2479,
      "Ġoften": 2480,
      "##omes": 2481,
      "Ġden": 2482,
      "Ġplace": 2483,
      "##allel": 2484,
      "Ġcalculate": 2485,
      "years": 2486,
      "##itor": 2487,
      "equ": 2488,
      "Ġlaw": 2489,
      "Ġinvol": 2490,
      "##ctors": 2491,
      "Ġmoment": 2492,
      "Ġplot": 2493,
      "Ġsem": 2494,
      "sc": 2495,
      "##ograph": 2496,
      "##----------------": 2497,
      "use": 2498,
      "##ysical": 2499,
      "##ittle": 2500,
      "Ġgrow": 2501,
      "Ġpres": 2502,
      "Sim": 2503,
      "Ġrot": 2504,
      "Ġcases": 2505,
      "Ġrelations": 2506,
      "Ġmaximum": 2507,
      "Ġconcept": 2508,
      "rm": 2509,
      "Ġselect": 2510,
      "Ġfull": 2511,
      "Ġelectron": 2512,
      "Ġexpression": 2513,
      "##ended": 2514,
      "Ġtypes": 2515,
      "Ġsets": 2516,
      "new": 2517,
      "Ġcreate": 2518,
      "Ġfollows": 2519,
      "Ġfar": 2520,
      "##vironment": 2521,
      "##eful": 2522,
      "ĠĠĠĠĠĠĠ": 2523,
      "##ery": 2524,
      "he": 2525,
      "Ġreport": 2526,
      "Thus": 2527,
      "Ġmakes": 2528,
      "sim": 2529,
      "##-\\": 2530,
      "##atis": 2531,
      "Ġaff": 2532,
      "##ised": 2533,
      "##med": 2534,
      "return": 2535,
      "Question": 2536,
      "Ġtransform": 2537,
      "de": 2538,
      "##vent": 2539,
      "##ividual": 2540,
      "##ats": 2541,
      "##ST": 2542,
      "##ours": 2543,
      "##ateg": 2544,
      "Do": 2545,
      "ab": 2546,
      "##day": 2547,
      "phi": 2548,
      "##let": 2549,
      "##ensor": 2550,
      "Ġphot": 2551,
      "like": 2552,
      "Ġanaly": 2553,
      "Ġdraw": 2554,
      "##cular": 2555,
      "##rict": 2556,
      "Ġargument": 2557,
      "Ġuseful": 2558,
      "Ġmath": 2559,
      "=\"": 2560,
      "##arent": 2561,
      "Ġstates": 2562,
      "##alf": 2563,
      "##ho": 2564,
      "##ift": 2565,
      "Ġnecess": 2566,
      "Ġrequired": 2567,
      "##achine": 2568,
      "##ife": 2569,
      "##ored": 2570,
      "vec": 2571,
      "##DF": 2572,
      "Ġgreat": 2573,
      "##ources": 2574,
      "With": 2575,
      "##ww": 2576,
      "Ġsw": 2577,
      "##apt": 2578,
      "$$.": 2579,
      "##alse": 2580,
      "Ġvelocity": 2581,
      "Ġfiles": 2582,
      "Ġthing": 2583,
      "##uments": 2584,
      "##ren": 2585,
      "Ġgroups": 2586,
      "##tep": 2587,
      "Ġlot": 2588,
      "Ġcrit": 2589,
      "##ming": 2590,
      "Ġwhile": 2591,
      "##ieve": 2592,
      "Ġsaid": 2593,
      "Ġseems": 2594,
      "var": 2595,
      "##ask": 2596,
      "Ġfam": 2597,
      "##obal": 2598,
      "##atisf": 2599,
      "##igg": 2600,
      "}}{": 2601,
      "##AN": 2602,
      "##iles": 2603,
      "##ription": 2604,
      "Ġperformance": 2605,
      "Ġmov": 2606,
      "##arget": 2607,
      "##uration": 2608,
      "Not": 2609,
      "bl": 2610,
      "##}}": 2611,
      "ĠUniversity": 2612,
      "Ġsignal": 2613,
      "par": 2614,
      "ĠCon": 2615,
      "Ġcoll": 2616,
      "Ġfixed": 2617,
      "Ġkind": 2618,
      "Ġeng": 2619,
      "Ġpropos": 2620,
      "##_{": 2621,
      "])": 2622,
      "##nter": 2623,
      "Ġresearch": 2624,
      "Ġsuper": 2625,
      "##abl": 2626,
      "Ġgives": 2627,
      "Ġlearn": 2628,
      "##uff": 2629,
      "##orre": 2630,
      "Ġsimpl": 2631,
      "ax": 2632,
      "Ġshows": 2633,
      "Im": 2634,
      "##ici": 2635,
      "##rue": 2636,
      "Ġcommun": 2637,
      "##och": 2638,
      "More": 2639,
      "function": 2640,
      "Ġaccount": 2641,
      "Ġexamples": 2642,
      "##econd": 2643,
      "Ġprin": 2644,
      "##EN": 2645,
      "##AM": 2646,
      "##aster": 2647,
      "Ġconstruct": 2648,
      "Ġ%": 2649,
      "##utes": 2650,
      "##tex": 2651,
      "am": 2652,
      "##isk": 2653,
      "point": 2654,
      "ĠRes": 2655,
      "##ires": 2656,
      "My": 2657,
      "Ġsymmet": 2658,
      "Ġhum": 2659,
      "Ġbase": 2660,
      "Ġarticle": 2661,
      "\\,": 2662,
      "Ġstring": 2663,
      "Ġsuggest": 2664,
      "Ġsense": 2665,
      "Ġdocument": 2666,
      "Cont": 2667,
      "##abil": 2668,
      "##conom": 2669,
      "##AC": 2670,
      "##omorph": 2671,
      "Ġvalid": 2672,
      "Ġindex": 2673,
      "Ġreference": 2674,
      "Ġmove": 2675,
      "Ġcircle": 2676,
      "Ġcurve": 2677,
      "Ġdig": 2678,
      "##olic": 2679,
      "Cl": 2680,
      "Thanks": 2681,
      "##ty": 2682,
      "##IC": 2683,
      "May": 2684,
      "using": 2685,
      "Ġuses": 2686,
      "Ġdri": 2687,
      "Ġinclude": 2688,
      "pp": 2689,
      "##actions": 2690,
      "Ġdifferential": 2691,
      "##me": 2692,
      "Ġobtained": 2693,
      "Ġhaving": 2694,
      "##ponse": 2695,
      ".;": 2696,
      "Ġcorresponding": 2697,
      "Ġmatter": 2698,
      "Ġworking": 2699,
      "##aries": 2700,
      "Ġlittle": 2701,
      "Ġalong": 2702,
      "Ġcontains": 2703,
      "Ġwind": 2704,
      "Ġrequire": 2705,
      "Ġvolume": 2706,
      "Ġpur": 2707,
      "Ġsk": 2708,
      "##ek": 2709,
      "omega": 2710,
      "##uted": 2711,
      "##ferent": 2712,
      "www": 2713,
      "ÃĹ": 2714,
      "Ġfurther": 2715,
      "Ġbre": 2716,
      "##plication": 2717,
      "##ran": 2718,
      "app": 2719,
      "Ġuser": 2720,
      "Ġox": 2721,
      "Ġtechni": 2722,
      "Ġaccess": 2723,
      "Ġphase": 2724,
      "Ġexpon": 2725,
      "Ġoptim": 2726,
      "Ġintegral": 2727,
      "^{\\": 2728,
      "Ġopp": 2729,
      "Ġinteger": 2730,
      "''": 2731,
      "dimensional": 2732,
      "Â°": 2733,
      "Ġgot": 2734,
      "Ġindividual": 2735,
      "First": 2736,
      "Ġwritten": 2737,
      "Delta": 2738,
      "Ġ^": 2739,
      "##idd": 2740,
      "Ġincrease": 2741,
      "Ġmap": 2742,
      "##plicit": 2743,
      "Ġplay": 2744,
      "##right": 2745,
      "##bon": 2746,
      "dfrac": 2747,
      "Ġsymbol": 2748,
      "Ġcontinuous": 2749,
      "Ġeasy": 2750,
      "##ploy": 2751,
      "##though": 2752,
      "##por": 2753,
      "##SE": 2754,
      "##roll": 2755,
      "id": 2756,
      "Ġstudents": 2757,
      "##hemical": 2758,
      "##ruction": 2759,
      "##yl": 2760,
      "sp": 2761,
      "Ġrow": 2762,
      "Ġvia": 2763,
      "##eter": 2764,
      "Ġwords": 2765,
      "##ceed": 2766,
      "Ġcompar": 2767,
      "Ġexactly": 2768,
      "Ġsimply": 2769,
      "')": 2770,
      "Ġdefine": 2771,
      "Ġeffects": 2772,
      "Ġpattern": 2773,
      "Ġclose": 2774,
      "Ġdefault": 2775,
      "Ġnatural": 2776,
      "}$.": 2777,
      "Ġconsist": 2778,
      "$$,": 2779,
      "##ibility": 2780,
      "Ġreaction": 2781,
      "Ġpressure": 2782,
      "Ġcommand": 2783,
      "ĠMod": 2784,
      "Ġindependent": 2785,
      "hat": 2786,
      "Ġproperty": 2787,
      "##ather": 2788,
      "Therefore": 2789,
      "##urb": 2790,
      "Ġoption": 2791,
      "Ġobserved": 2792,
      "Ġtriangle": 2793,
      "##pose": 2794,
      "Ġdel": 2795,
      "Ġspecial": 2796,
      "Res": 2797,
      "Ġconsid": 2798,
      "##aves": 2799,
      "Ġload": 2800,
      "up": 2801,
      "Ġlanguage": 2802,
      "etc": 2803,
      "##af": 2804,
      "##ftware": 2805,
      "##rite": 2806,
      "From": 2807,
      "##istance": 2808,
      "Also": 2809,
      "##****": 2810,
      "##ump": 2811,
      "##nalysis": 2812,
      "Ġvarious": 2813,
      "Ġmess": 2814,
      "Ġobjects": 2815,
      "leq": 2816,
      "##itted": 2817,
      "Ġtechn": 2818,
      "##adr": 2819,
      "Ġkeep": 2820,
      "##ifferent": 2821,
      "name": 2822,
      "Ġyears": 2823,
      "Ġperm": 2824,
      "Ġgrad": 2825,
      "Def": 2826,
      "Ġassociated": 2827,
      "Dis": 2828,
      "Ġcross": 2829,
      "##izing": 2830,
      "delta": 2831,
      "##celer": 2832,
      "##uit": 2833,
      "##TC": 2834,
      "ĠUn": 2835,
      "Ġprot": 2836,
      "##nown": 2837,
      "+\\": 2838,
      "##umer": 2839,
      "Ġapplications": 2840,
      "##imits": 2841,
      "let": 2842,
      "Ġgas": 2843,
      "Ġfraction": 2844,
      "Ġregion": 2845,
      "##raint": 2846,
      "Ġupd": 2847,
      "max": 2848,
      "ĠSystem": 2849,
      "##Â·": 2850,
      "Ġcontrib": 2851,
      "ĠâĢ¢": 2852,
      "##=\\": 2853,
      "##anced": 2854,
      "Ġeigen": 2855,
      "Ġtell": 2856,
      "Ġ{\\": 2857,
      "Ġblock": 2858,
      "Ġnear": 2859,
      "De": 2860,
      "##rons": 2861,
      "ĠAn": 2862,
      "##osp": 2863,
      "##ĠĠĠĠĠĠĠĠĠĠĠĠĠĠĠĠ": 2864,
      "Ġwhole": 2865,
      "Ġair": 2866,
      "Ġprove": 2867,
      "##ocus": 2868,
      "##ficult": 2869,
      "##oard": 2870,
      "##ä¸": 2871,
      "_\\": 2872,
      "Ġheat": 2873,
      "Ġexpected": 2874,
      "##ledge": 2875,
      "See": 2876,
      "Using": 2877,
      "Ġbasic": 2878,
      "##onsider": 2879,
      "##aken": 2880,
      "Ġapplied": 2881,
      "Ġquite": 2882,
      "Ġtalk": 2883,
      "Ġneeded": 2884,
      "Ġday": 2885,
      "Ġdetermine": 2886,
      "Ġequivalent": 2887,
      "Ġarray": 2888,
      "Some": 2889,
      "##SS": 2890,
      "Ġplane": 2891,
      "Can": 2892,
      "##most": 2893,
      "##hesis": 2894,
      "Ġinstead": 2895,
      "Ġgrav": 2896,
      "Ġhyp": 2897,
      "##ibrary": 2898,
      "ÂŃ": 2899,
      "Ġscale": 2900,
      "ĠEng": 2901,
      "##uture": 2902,
      "Ġfund": 2903,
      "Ġwrong": 2904,
      ">>": 2905,
      "Se": 2906,
      "-\\": 2907,
      "##LE": 2908,
      "##load": 2909,
      "mon": 2910,
      "New": 2911,
      "Ġunc": 2912,
      "Ġsearch": 2913,
      "Ġdoing": 2914,
      "##iter": 2915,
      "Ġrece": 2916,
      "Ġroot": 2917,
      "Ġapplication": 2918,
      "ï¿½": 2919,
      "##rices": 2920,
      "type": 2921,
      "ĠSh": 2922,
      "##ament": 2923,
      "ĠEqu": 2924,
      "Ġinstall": 2925,
      "Ġpopulation": 2926,
      "##amp": 2927,
      ")+": 2928,
      "Ġitself": 2929,
      "##sequ": 2930,
      "##ious": 2931,
      "Ġfail": 2932,
      "##ajor": 2933,
      "##}\\": 2934,
      "##ensions": 2935,
      "Ġconc": 2936,
      "<-": 2937,
      "Ġenvironment": 2938,
      "Ġbeg": 2939,
      "Ġhydro": 2940,
      "Ġsuff": 2941,
      "##si": 2942,
      "Ġacross": 2943,
      "ĠAp": 2944,
      "Ġtrying": 2945,
      "##).": 2946,
      "Ġnever": 2947,
      "Ġinfinite": 2948,
      "##box": 2949,
      "Ġremain": 2950,
      "Ġspaces": 2951,
      "Ġradius": 2952,
      "##arc": 2953,
      "const": 2954,
      "##alth": 2955,
      "##til": 2956,
      "Ġsatisf": 2957,
      "Ġdecre": 2958,
      "Pl": 2959,
      "Ġred": 2960,
      "##oly": 2961,
      "ĠLa": 2962,
      "##iqu": 2963,
      "Ġprice": 2964,
      "Ġconsidered": 2965,
      "was": 2966,
      "print": 2967,
      "Ġgen": 2968,
      "Ġoccur": 2969,
      "##ale": 2970,
      "##rees": 2971,
      "pre": 2972,
      "Ġsens": 2973,
      "Ġdescribed": 2974,
      "Ġhom": 2975,
      "Ġestimate": 2976,
      "Ġtoget": 2977,
      "Ġpackage": 2978,
      "Ġparallel": 2979,
      "Ġtogether": 2980,
      "##oo": 2981,
      "ed": 2982,
      "Figure": 2983,
      "Ġseen": 2984,
      "##mber": 2985,
      "##ogle": 2986,
      "Jo": 2987,
      "Ġrule": 2988,
      "Ġhead": 2989,
      "##edia": 2990,
      "##back": 2991,
      "##rated": 2992,
      "##ords": 2993,
      "Ġinterpre": 2994,
      "Ġcare": 2995,
      "##reen": 2996,
      "##DE": 2997,
      "##irect": 2998,
      "##ymbol": 2999,
      "inter": 3000,
      "Ġloss": 3001,
      "##abor": 3002,
      "##ouse": 3003,
      "Ġboundary": 3004,
      "##cing": 3005,
      "Ġevent": 3006,
      "##ison": 3007,
      "##ares": 3008,
      "Ġconcent": 3009,
      "##ulti": 3010,
      "Ġrele": 3011,
      "Ġphysics": 3012,
      "##rier": 3013,
      "ĠMath": 3014,
      "Ġadded": 3015,
      "##rin": 3016,
      "Ġadj": 3017,
      "Ġfinal": 3018,
      "Ġfin": 3019,
      "##TeX": 3020,
      "us": 3021,
      "##cle": 3022,
      "Ġhalf": 3023,
      "Ġmathematical": 3024,
      "##ï¿½ï¿½": 3025,
      "Î±": 3026,
      "##========": 3027,
      "##ids": 3028,
      "##ising": 3029,
      "Ġrather": 3030,
      "##tage": 3031,
      "Ġbond": 3032,
      "Ġsimul": 3033,
      "Ġcome": 3034,
      "##ags": 3035,
      "##itch": 3036,
      "##ths": 3037,
      "PM": 3038,
      "##olute": 3039,
      "Ġcontext": 3040,
      "Ġorgan": 3041,
      "##iff": 3042,
      "Ġrelationship": 3043,
      "rep": 3044,
      "##bed": 3045,
      "Ġcomponents": 3046,
      "Ġprobably": 3047,
      "Ġdegree": 3048,
      "Ġinstance": 3049,
      "Ġregular": 3050,
      "//": 3051,
      "Ġach": 3052,
      "##lex": 3053,
      "Ġresponse": 3054,
      "Ġsays": 3055,
      "##ategory": 3056,
      "will": 3057,
      "exp": 3058,
      "##fect": 3059,
      "test": 3060,
      "##ameter": 3061,
      "Ġbox": 3062,
      "After": 3063,
      "Ġsubject": 3064,
      "Example": 3065,
      "##wards": 3066,
      "Ġentire": 3067,
      "##otes": 3068,
      "gamma": 3069,
      "Ġautom": 3070,
      "Ġlarger": 3071,
      "ĠDe": 3072,
      "Ġdifficult": 3073,
      "Use": 3074,
      "Ġlater": 3075,
      "##linear": 3076,
      "##min": 3077,
      "Ġstatement": 3078,
      "##aced": 3079,
      "*}": 3080,
      "Jan": 3081,
      "##uation": 3082,
      "circ": 3083,
      "##onic": 3084,
      "##ustom": 3085,
      "##ml": 3086,
      "Ġtakes": 3087,
      "##ived": 3088,
      "Ġcaus": 3089,
      "form": 3090,
      "Ġfeatures": 3091,
      "##gence": 3092,
      "##ams": 3093,
      "Ġdirectly": 3094,
      "Ġdomain": 3095,
      "Ġold": 3096,
      "##âĶ": 3097,
      "##itting": 3098,
      "}$,": 3099,
      "##iform": 3100,
      "value": 3101,
      "ĠPl": 3102,
      "Ġinterval": 3103,
      "##ET": 3104,
      "Ġparticle": 3105,
      "##anation": 3106,
      "ĠAr": 3107,
      "Ġlikely": 3108,
      "##lor": 3109,
      "##aim": 3110,
      "Ġpublic": 3111,
      "ĠÂ·": 3112,
      "Ġgreater": 3113,
      "Ġmagnetic": 3114,
      "Ġneut": 3115,
      "Ġfields": 3116,
      "##oriz": 3117,
      "Abstract": 3118,
      "including": 3119,
      "Ġgame": 3120,
      "Ġord": 3121,
      "##position": 3122,
      "##ounds": 3123,
      "Ġallows": 3124,
      "Ar": 3125,
      "Ġtherm": 3126,
      "Ġhist": 3127,
      "get": 3128,
      "Ġmathematics": 3129,
      "Ġcalculated": 3130,
      "##rror": 3131,
      "ĠInt": 3132,
      "Ind": 3133,
      ")/": 3134,
      "Ġways": 3135,
      "Fig": 3136,
      "##itation": 3137,
      "rho": 3138,
      "##urrent": 3139,
      "Ġbasis": 3140,
      "\":": 3141,
      "##imate": 3142,
      "##ends": 3143,
      "Ġcharge": 3144,
      "Ġmode": 3145,
      "Ġvectors": 3146,
      "Ġprovided": 3147,
      "##rote": 3148,
      "Ġreview": 3149,
      "Ġassume": 3150,
      "##ĨĴ": 3151,
      "##oogle": 3152,
      "##OM": 3153,
      "Ġmatch": 3154,
      "Î¼": 3155,
      "##sh": 3156,
      "Ġformat": 3157,
      "Ap": 3158,
      "Ġsuccess": 3159,
      "##swer": 3160,
      "Ġfactors": 3161,
      "Ġcomponent": 3162,
      "Ġmachine": 3163,
      "##space": 3164,
      "Ġdiagram": 3165,
      "##iving": 3166,
      "Ġshape": 3167,
      "##OT": 3168,
      "ĠNew": 3169,
      "ĠFig": 3170,
      "##side": 3171,
      "Ġinteresting": 3172,
      "Ġschem": 3173,
      "Ġdimension": 3174,
      "Ġthought": 3175,
      "Ġtw": 3176,
      "##empt": 3177,
      "Ġlooking": 3178,
      "##ED": 3179,
      ".\"": 3180,
      "Why": 3181,
      "epsilon": 3182,
      "Ġsite": 3183,
      "document": 3184,
      "##rap": 3185,
      "co": 3186,
      "Ġinverse": 3187,
      "##efere": 3188,
      "##ogn": 3189,
      "##nergy": 3190,
      "Ġill": 3191,
      "##ION": 3192,
      "##vices": 3193,
      "Ġheight": 3194,
      "Ġregression": 3195,
      "Ġminimum": 3196,
      "Ġgenerated": 3197,
      "class": 3198,
      "##inger": 3199,
      "##ocal": 3200,
      "Ġmotion": 3201,
      "Ġfuture": 3202,
      "Ġdiff": 3203,
      "Ġconv": 3204,
      "Ġmicro": 3205,
      "Ġloop": 3206,
      "Ġtrad": 3207,
      "##,\\": 3208,
      "Ġbehavior": 3209,
      "Ġoperator": 3210,
      "ĠLe": 3211,
      "Ġapply": 3212,
      "##ional": 3213,
      "Ġmiss": 3214,
      "##rag": 3215,
      "Ġmeasured": 3216,
      "Ġclust": 3217,
      "##ches": 3218,
      "Ġusually": 3219,
      "Ġitem": 3220,
      "Ġcells": 3221,
      "##ores": 3222,
      "##MAT": 3223,
      "##ube": 3224,
      "Sol": 3225,
      "Ġengine": 3226,
      "##rum": 3227,
      "Ġiter": 3228,
      "##omen": 3229,
      "Ġassign": 3230,
      "##ibri": 3231,
      "##ID": 3232,
      "Ġfocus": 3233,
      "Ġbody": 3234,
      "Ġport": 3235,
      "Jun": 3236,
      "##eries": 3237,
      "##St": 3238,
      "##osition": 3239,
      "Ġimprove": 3240,
      "Ġonline": 3241,
      "Ġconfig": 3242,
      "##ush": 3243,
      "Ġfore": 3244,
      "ĠMathematics": 3245,
      "##ica": 3246,
      "Ġsides": 3247,
      "##oles": 3248,
      "##cale": 3249,
      "Ġself": 3250,
      "ĠScience": 3251,
      "Ġtarget": 3252,
      "##medi": 3253,
      "ĠâĪĴ": 3254,
      "Ġnuc": 3255,
      "##ai": 3256,
      "##come": 3257,
      "^\\": 3258,
      "##ras": 3259,
      "Ġmention": 3260,
      "Ġ--": 3261,
      "Ġrelation": 3262,
      "Ġcomputer": 3263,
      "trans": 3264,
      "even": 3265,
      "Ġderivative": 3266,
      "##uro": 3267,
      "Ġcomment": 3268,
      "respect": 3269,
      "##uck": 3270,
      "size": 3271,
      "##son": 3272,
      "however": 3273,
      "##lish": 3274,
      "##dots": 3275,
      "deg": 3276,
      "Ġprovides": 3277,
      "Ġacceler": 3278,
      "Ġexists": 3279,
      "Ġclosed": 3280,
      "Ġhypot": 3281,
      "Ġsubst": 3282,
      "##ublished": 3283,
      "Ġneeds": 3284,
      "##ooth": 3285,
      "matrix": 3286,
      "Our": 3287,
      "##reg": 3288,
      "++": 3289,
      "##arily": 3290,
      "Me": 3291,
      "ĠCl": 3292,
      "Ġq": 3293,
      "view": 3294,
      "Oct": 3295,
      "Ġquadr": 3296,
      "##ilibri": 3297,
      "Ġunits": 3298,
      "Ġhuman": 3299,
      "Ġorbit": 3300,
      "##atory": 3301,
      "Ġprim": 3302,
      "##chool": 3303,
      "Ġgeometry": 3304,
      "Ġparticles": 3305,
      "##âĶĢ": 3306,
      "Add": 3307,
      "##book": 3308,
      "(-": 3309,
      "Given": 3310,
      "Ġappear": 3311,
      "Ġinside": 3312,
      "##SC": 3313,
      "Ġphysical": 3314,
      "color": 3315,
      "Ġnecessary": 3316,
      "##izes": 3317,
      "Ġadditional": 3318,
      "##Â·Â·": 3319,
      "Ġpe": 3320,
      "Ġnote": 3321,
      "Ġaccept": 3322,
      "##pro": 3323,
      "##bert": 3324,
      "##SA": 3325,
      "Sub": 3326,
      "##zz": 3327,
      "##ground": 3328,
      "respectively": 3329,
      "##ites": 3330,
      "Ġaltern": 3331,
      "##ki": 3332,
      "Ġpay": 3333,
      "Ġmajor": 3334,
      "Ġdatas": 3335,
      "Ġanswers": 3336,
      "##resh": 3337,
      "Ġlife": 3338,
      "rightarrow": 3339,
      "##loat": 3340,
      "##tices": 3341,
      "Ġsmaller": 3342,
      "Ġcoordinates": 3343,
      "Ġinvestig": 3344,
      "Ġlayer": 3345,
      "Ġcontent": 3346,
      "##racy": 3347,
      "rel": 3348,
      "Per": 3349,
      "my": 3350,
      "##uthors": 3351,
      "##ises": 3352,
      "Ġben": 3353,
      "##ending": 3354,
      "Ġimag": 3355,
      "##vert": 3356,
      "âī": 3357,
      "bar": 3358,
      "Ġalgorithms": 3359,
      "Ġvoltage": 3360,
      "##istry": 3361,
      "ĠInd": 3362,
      "Journal": 3363,
      "##cript": 3364,
      "('": 3365,
      "ĠPost": 3366,
      "##ifying": 3367,
      "}=\\": 3368,
      "vol": 3369,
      "##ilt": 3370,
      "##ohn": 3371,
      "Ġanything": 3372,
      "Ġfit": 3373,
      "mm": 3374,
      "##lli": 3375,
      "Ġdemonst": 3376,
      "Ġissue": 3377,
      "##ategor": 3378,
      "Ġperson": 3379,
      "##otal": 3380,
      "Ġcapac": 3381,
      "Ġess": 3382,
      "Ġdetails": 3383,
      "Ġtaken": 3384,
      "Ġsumm": 3385,
      "inst": 3386,
      "##hood": 3387,
      "ĠCont": 3388,
      "Ġcompute": 3389,
      "##rypt": 3390,
      "Ġcenter": 3391,
      "tau": 3392,
      "red": 3393,
      "Ġmaking": 3394,
      "Ġrisk": 3395,
      "Ġparts": 3396,
      "bo": 3397,
      "##eterm": 3398,
      "Ġbegin": 3399,
      "Ġconstraint": 3400,
      "Ġcolor": 3401,
      "Ġproduce": 3402,
      "add": 3403,
      "Calcul": 3404,
      "##ML": 3405,
      "ĠPower": 3406,
      "dt": 3407,
      "##atives": 3408,
      "Ġproport": 3409,
      "Ġdim": 3410,
      "##li": 3411,
      "Ġdevelopment": 3412,
      "Pre": 3413,
      "Ġir": 3414,
      "Par": 3415,
      "Any": 3416,
      "##II": 3417,
      "se": 3418,
      "ĠFree": 3419,
      "ĠSol": 3420,
      "Ass": 3421,
      "....": 3422,
      "##uppose": 3423,
      "Ġprinci": 3424,
      "Î¸": 3425,
      "quad": 3426,
      "Ġaxis": 3427,
      "ad": 3428,
      "ÏĢ": 3429,
      "Ġeasily": 3430,
      "##auss": 3431,
      "Â·": 3432,
      "Ġcoefficients": 3433,
      "##ina": 3434,
      "Ġant": 3435,
      "Ġadv": 3436,
      "Ġscience": 3437,
      "ac": 3438,
      "##ling": 3439,
      "Ġï": 3440,
      "Ġstra": 3441,
      "##inator": 3442,
      "Ġblack": 3443,
      "ĠÂ»": 3444,
      "Ġsteps": 3445,
      "Ġcreated": 3446,
      "Ġtreat": 3447,
      "Ġglobal": 3448,
      "Ġsort": 3449,
      "##resents": 3450,
      "Ġagainst": 3451,
      "##osite": 3452,
      "Ġsoftware": 3453,
      "##mun": 3454,
      "##ze": 3455,
      "Dec": 3456,
      "##name": 3457,
      "##aches": 3458,
      "Ġdisplay": 3459,
      "oper": 3460,
      "##ques": 3461,
      "##eneral": 3462,
      "Ġcos": 3463,
      "rangle": 3464,
      "##ļĦ": 3465,
      "Ġrepresentation": 3466,
      "##ideo": 3467,
      "Ġgrowth": 3468,
      "given": 3469,
      "ĠClass": 3470,
      "##ptions": 3471,
      "##orn": 3472,
      "Ġsamples": 3473,
      "Mod": 3474,
      "Ġisn": 3475,
      "##AB": 3476,
      "Ġut": 3477,
      "Ġunique": 3478,
      "Posts": 3479,
      "Ġsynt": 3480,
      "##ili": 3481,
      "##irm": 3482,
      "Ġnode": 3483,
      "ln": 3484,
      "Ġhappen": 3485,
      "Ġtree": 3486,
      "Ġuntil": 3487,
      "##ometimes": 3488,
      "##plications": 3489,
      "Ġsent": 3490,
      "Ġeconom": 3491,
      "Rec": 3492,
      "el": 3493,
      "Ġdevi": 3494,
      "Ġbro": 3495,
      "Hence": 3496,
      "##ilibrium": 3497,
      "Ġthird": 3498,
      "Ġweak": 3499,
      "Ġcompared": 3500,
      "Ġmatrices": 3501,
      "##for": 3502,
      "##rical": 3503,
      "}-": 3504,
      "##ards": 3505,
      "##oney": 3506,
      "##pri": 3507,
      "spec": 3508,
      "Ġfilter": 3509,
      "Ġ//": 3510,
      "ass": 3511,
      "Ġchann": 3512,
      "##plot": 3513,
      "Ġproper": 3514,
      "##ocks": 3515,
      "##utor": 3516,
      "Ġaddress": 3517,
      "Ġher": 3518,
      ")]": 3519,
      "##plit": 3520,
      "Ġstudies": 3521,
      "##tes": 3522,
      "Ġquick": 3523,
      "ĠĠĠĠĠĠ": 3524,
      "##isms": 3525,
      "Ġonce": 3526,
      "Ġintegers": 3527,
      "Ġactual": 3528,
      "##OS": 3529,
      "##erg": 3530,
      "Ġangles": 3531,
      "##Ã¶": 3532,
      "##actor": 3533,
      "ãĢ": 3534,
      ")-": 3535,
      "Ġbinary": 3536,
      "Vol": 3537,
      "##((": 3538,
      "Ġmemory": 3539,
      "Ġinequ": 3540,
      ")$.": 3541,
      "##ottom": 3542,
      "Ġmeasurements": 3543,
      "Ġelectric": 3544,
      "ĠComput": 3545,
      "##iments": 3546,
      "Mathemat": 3547,
      "Ġalmost": 3548,
      "##EC": 3549,
      "Ġexam": 3550,
      "more": 3551,
      "##ung": 3552,
      "##bitr": 3553,
      "Ġacid": 3554,
      "ĠPhysics": 3555,
      "Ġbecome": 3556,
      "Ġconnected": 3557,
      "Ġyield": 3558,
      "Ġprior": 3559,
      "##pped": 3560,
      "Ġground": 3561,
      "just": 3562,
      "][": 3563,
      "Ġexec": 3564,
      "Ġproposed": 3565,
      "##ava": 3566,
      "##mit": 3567,
      "##``": 3568,
      "Ġothers": 3569,
      "Apr": 3570,
      "Ġtraining": 3571,
      "Show": 3572,
      "Ġprocesses": 3573,
      "##),": 3574,
      "Ġpercent": 3575,
      "##jection": 3576,
      "##ternal": 3577,
      "Ġimages": 3578,
      "Ġunderstanding": 3579,
      "##ortun": 3580,
      "AM": 3581,
      "Ġelse": 3582,
      "Ġaction": 3583,
      "Ġdivid": 3584,
      "Ġchoice": 3585,
      "Ġhoriz": 3586,
      "##ips": 3587,
      "comp": 3588,
      "ii": 3589,
      "Ġknowledge": 3590,
      "Ġamong": 3591,
      "##ories": 3592,
      "Ġupper": 3593,
      "Ġslow": 3594,
      "Of": 3595,
      "##ocation": 3596,
      "Ġdouble": 3597,
      "Ġ###": 3598,
      "Ġoperation": 3599,
      "##AP": 3600,
      "##ocial": 3601,
      "Ġprime": 3602,
      "Ġmeasurement": 3603,
      "Part": 3604,
      "ĠSc": 3605,
      "bm": 3606,
      "Ġpractice": 3607,
      "{{": 3608,
      "##ĠĠĠ": 3609,
      "Ġthus": 3610,
      "Ġball": 3611,
      "Ġyet": 3612,
      "##ront": 3613,
      "Ġefficient": 3614,
      "##(\\": 3615,
      "Comput": 3616,
      "Ġproduction": 3617,
      "##rticle": 3618,
      "Ġabsolute": 3619,
      "##________________": 3620,
      "Ġcarbon": 3621,
      "##isc": 3622,
      "##ãģ": 3623,
      "es": 3624,
      "##uracy": 3625,
      "##tty": 3626,
      "reg": 3627,
      "Aug": 3628,
      "Ġspecified": 3629,
      "##âĶĢâĶĢ": 3630,
      "Ġprint": 3631,
      "dec": 3632,
      "ĠTrans": 3633,
      "Each": 3634,
      "Ġsomeone": 3635,
      "Ġrunning": 3636,
      "Ġrequires": 3637,
      "##pty": 3638,
      "Ġedge": 3639,
      "##ymmet": 3640,
      "Ġhyper": 3641,
      "##iness": 3642,
      "Ġgenerate": 3643,
      "Ġaway": 3644,
      "Ġobservations": 3645,
      "model": 3646,
      "Ġoperations": 3647,
      "##lope": 3648,
      "##ples": 3649,
      "##EM": 3650,
      "##çļĦ": 3651,
      "##de": 3652,
      "),(": 3653,
      "Ġdidn": 3654,
      "Ġfast": 3655,
      "Ġindu": 3656,
      "Ġtransfer": 3657,
      "ĠAnalysis": 3658,
      "##serv": 3659,
      "##IS": 3660,
      "##iction": 3661,
      "ĠÃĹ": 3662,
      "Ġproced": 3663,
      "##hat": 3664,
      "Ġscript": 3665,
      "Ġincreasing": 3666,
      "Ġcalculator": 3667,
      "Ġrules": 3668,
      "Ġguess": 3669,
      "Ġcircuit": 3670,
      "Ġcut": 3671,
      "Ġhim": 3672,
      "Ġodd": 3673,
      "}.": 3674,
      "##atus": 3675,
      "term": 3676,
      "##change": 3677,
      "##pir": 3678,
      "Ġoptimal": 3679,
      "##urity": 3680,
      "Ġperfect": 3681,
      "Ġclaim": 3682,
      "Ġseg": 3683,
      "Ġrect": 3684,
      "call": 3685,
      "Which": 3686,
      "list": 3687,
      "##LL": 3688,
      "##eli": 3689,
      "Ġchemical": 3690,
      "Ġcoefficient": 3691,
      "Ġgetting": 3692,
      "only": 3693,
      "Ġscient": 3694,
      "##mon": 3695,
      "##illion": 3696,
      "##pth": 3697,
      "Ġcal": 3698,
      "##oad": 3699,
      "##amental": 3700,
      "##na": 3701,
      "Ġstructures": 3702,
      "Ġstraight": 3703,
      "Mar": 3704,
      "##where": 3705,
      "##ifier": 3706,
      "Ġwhose": 3707,
      "UTC": 3708,
      "Feb": 3709,
      "Ġclos": 3710,
      "mean": 3711,
      "Ġlooks": 3712,
      "Ġnorm": 3713,
      "Ġextre": 3714,
      "##apping": 3715,
      "Ġclasses": 3716,
      "Â¶": 3717,
      "Ġrecent": 3718,
      "##ds": 3719,
      "Consider": 3720,
      "##orrect": 3721,
      "\\{": 3722,
      "Ġconve": 3723,
      "Ġbreak": 3724,
      "self": 3725,
      "XX": 3726,
      "##vari": 3727,
      "ldots": 3728,
      "Ġens": 3729,
      "##pecially": 3730,
      "Ġarbitr": 3731,
      "##}{": 3732,
      "Le": 3733,
      ".âĢĿ": 3734,
      "Ġapproximation": 3735,
      "Ġerrors": 3736,
      "Ġrates": 3737,
      "Ġund": 3738,
      "##rast": 3739,
      "##atically": 3740,
      "Ġappropri": 3741,
      "Î»": 3742,
      "Ġnoise": 3743,
      "Ġlonger": 3744,
      "Phys": 3745,
      "Are": 3746,
      "Ġfeed": 3747,
      "Ġdetermined": 3748,
      "##encies": 3749,
      "##plex": 3750,
      "Ġremov": 3751,
      "num": 3752,
      "\\}": 3753,
      "##aneous": 3754,
      "##iciency": 3755,
      "Ġcomes": 3756,
      "##istrib": 3757,
      "##echn": 3758,
      "Ġcir": 3759,
      "}^{\\": 3760,
      "Solution": 3761,
      "##oted": 3762,
      "Ġchoose": 3763,
      "##orth": 3764,
      "ĠCO": 3765,
      "##hemistry": 3766,
      "##orld": 3767,
      "##to": 3768,
      "Ġlevels": 3769,
      "level": 3770,
      "Ġones": 3771,
      "Li": 3772,
      "Ġbig": 3773,
      "order": 3774,
      "Ġï£": 3775,
      "While": 3776,
      "each": 3777,
      "Ġavoid": 3778,
      "Ġgraphs": 3779,
      "Joined": 3780,
      "##ferences": 3781,
      "##haps": 3782,
      "Ġhome": 3783,
      "##pping": 3784,
      "Ġwrote": 3785,
      "Yes": 3786,
      "nu": 3787,
      "]]": 3788,
      "Ġframe": 3789,
      "Ġdescribe": 3790,
      "Ġnumerical": 3791,
      "##icture": 3792,
      "Expl": 3793,
      "Ġjob": 3794,
      "Ġattempt": 3795,
      "Ġampl": 3796,
      "##pons": 3797,
      "Ġtherefore": 3798,
      "##hing": 3799,
      "Ġbal": 3800,
      "##hers": 3801,
      "Ġsufficient": 3802,
      ")^{": 3803,
      "Ġnames": 3804,
      "Ġwide": 3805,
      "some": 3806,
      "##cles": 3807,
      "str": 3808,
      "Ġpolar": 3809,
      "Ġconduct": 3810,
      "ref": 3811,
      "##âĪĴ": 3812,
      "psi": 3813,
      "##ein": 3814,
      "ĠPython": 3815,
      "Sc": 3816,
      "##mission": 3817,
      "Ġatoms": 3818,
      "Ġbecomes": 3819,
      "##stitute": 3820,
      "##version": 3821,
      "##ampling": 3822,
      "Ġsimulation": 3823,
      "Ġexplicit": 3824,
      "Ġimpact": 3825,
      "line": 3826,
      "ĠIm": 3827,
      "##ream": 3828,
      "Ġpresented": 3829,
      "Ġevents": 3830,
      "pdf": 3831,
      "##land": 3832,
      "##oding": 3833,
      "##ework": 3834,
      "##oin": 3835,
      "##agnetic": 3836,
      "##ults": 3837,
      "Ġpack": 3838,
      "##light": 3839,
      "Ġelectrons": 3840,
      "Ġincluded": 3841,
      "Ġconne": 3842,
      "##ersion": 3843,
      "Please": 3844,
      "##oph": 3845,
      "##otic": 3846,
      "axis": 3847,
      "Set": 3848,
      "Ġchall": 3849,
      "sm": 3850,
      "]$": 3851,
      "Ġsubt": 3852,
      "Ġuniform": 3853,
      "Ġfun": 3854,
      "ĠData": 3855,
      "##irt": 3856,
      "Ġnetworks": 3857,
      "lim": 3858,
      "Ad": 3859,
      "##agement": 3860,
      "Ġfall": 3861,
      "##atal": 3862,
      "Ġdeveloped": 3863,
      "Ġcalculation": 3864,
      "==": 3865,
      "##indows": 3866,
      "##abilities": 3867,
      "##work": 3868,
      "Ġspin": 3869,
      "##ropy": 3870,
      "Ġexponential": 3871,
      "Ġlay": 3872,
      "##riv": 3873,
      "##point": 3874,
      "Ġtaking": 3875,
      "Ġmarket": 3876,
      "Ġpretty": 3877,
      "($": 3878,
      "##fully": 3879,
      "Ġrefer": 3880,
      ".[": 3881,
      "Ġoptions": 3882,
      "Ġaccording": 3883,
      "##apers": 3884,
      "##ND": 3885,
      "##roduction": 3886,
      "##ercise": 3887,
      "##itional": 3888,
      "ĠJan": 3889,
      "##ley": 3890,
      "ĠEarth": 3891,
      "Ġsal": 3892,
      "Ġauthor": 3893,
      "inf": 3894,
      "##ement": 3895,
      "Ġhold": 3896,
      "Ġquality": 3897,
      "Because": 3898,
      "Ġ]": 3899,
      "##olicy": 3900,
      "Ġnotation": 3901,
      "Ġtried": 3902,
      "Ġbo": 3903,
      "##IM": 3904,
      "ĠJournal": 3905,
      "Ġchild": 3906,
      "Am": 3907,
      "ne": 3908,
      "ĠFor": 3909,
      "Ġmetric": 3910,
      "ht": 3911,
      "##lected": 3912,
      "##ached": 3913,
      "Ġmoving": 3914,
      "##inity": 3915,
      ".:": 3916,
      "##earning": 3917,
      "non": 3918,
      "Ġcopy": 3919,
      "Ġsetting": 3920,
      "##uly": 3921,
      "Other": 3922,
      "Ġann": 3923,
      "Ġpartial": 3924,
      "Ġrepe": 3925,
      "Ġincreases": 3926,
      "Ġbelieve": 3927,
      "##%%": 3928,
      "have": 3929,
      "space": 3930,
      "Ġproducts": 3931,
      "Ġdeal": 3932,
      "Ġeffective": 3933,
      "Ġmultip": 3934,
      "None": 3935,
      "##use": 3936,
      "Ġnonlinear": 3937,
      "##rim": 3938,
      "Suppose": 3939,
      "##ogene": 3940,
      "ĠSystems": 3941,
      "Ġtask": 3942,
      "Inst": 3943,
      "##PS": 3944,
      "##PI": 3945,
      "Ġvisual": 3946,
      "##gress": 3947,
      "Ġ?": 3948,
      "##atex": 3949,
      "Ġrational": 3950,
      ")=\\": 3951,
      "ĠHe": 3952,
      "Ġdepends": 3953,
      "Ġ&=": 3954,
      "##meric": 3955,
      "Ġmessage": 3956,
      "Ġtests": 3957,
      "##arks": 3958,
      "Ġprogramming": 3959,
      "ĠProblem": 3960,
      "</": 3961,
      "Ġequilibrium": 3962,
      "Ġinterpret": 3963,
      "Ġion": 3964,
      "Ġcompletely": 3965,
      "##esian": 3966,
      "]{": 3967,
      "Ġinterse": 3968,
      "though": 3969,
      "Ġactiv": 3970,
      "##ameters": 3971,
      "Ġdynamics": 3972,
      "##oretical": 3973,
      "##ympt": 3974,
      "Ġlat": 3975,
      "Ġcustom": 3976,
      "Ġbar": 3977,
      "ĠDec": 3978,
      "also": 3979,
      "Right": 3980,
      "##hib": 3981,
      "Ġprote": 3982,
      "Ġful": 3983,
      "Ġnice": 3984,
      "##iol": 3985,
      "##NA": 3986,
      "Ġinflu": 3987,
      "##rient": 3988,
      "Ġrecomm": 3989,
      "Ġgenerally": 3990,
      "Ġregard": 3991,
      "Ġcentral": 3992,
      "other": 3993,
      "Ġwriting": 3994,
      "Ġobvious": 3995,
      "Well": 3996,
      "##ury": 3997,
      "overline": 3998,
      "Ġvertex": 3999,
      "Ġtopic": 4000,
      "##rig": 4001,
      "Ġcategory": 4002,
      "##ky": 4003,
      "Ġliter": 4004,
      "##by": 4005,
      "ĠCalcul": 4006,
      "##isions": 4007,
      "##ffect": 4008,
      "Ġmomentum": 4009,
      "Ġlogic": 4010,
      "]:": 4011,
      "Ġvariance": 4012,
      "Ġop": 4013,
      "Ġimplementation": 4014,
      "##alax": 4015,
      "##reate": 4016,
      "##iquid": 4017,
      "Ġmanif": 4018,
      "Ġsites": 4019,
      "Ġcontaining": 4020,
      "Ġclassical": 4021,
      "views": 4022,
      "Ġreading": 4023,
      "##ccording": 4024,
      "##ernel": 4025,
      "Ġappropriate": 4026,
      "##clusion": 4027,
      "ĠTheory": 4028,
      "Out": 4029,
      "##ighb": 4030,
      "big": 4031,
      "##ography": 4032,
      ":\\": 4033,
      "##ched": 4034,
      ",âĢĿ": 4035,
      "Ġmind": 4036,
      "Ġfinding": 4037,
      "ĠFunction": 4038,
      "Ġpast": 4039,
      "##ication": 4040,
      "##uel": 4041,
      "Eng": 4042,
      "##icular": 4043,
      "Ġsup": 4044,
      "##UR": 4045,
      "Ġhtt": 4046,
      "under": 4047,
      "##OC": 4048,
      "##berg": 4049,
      "Ġlab": 4050,
      "Ġexperience": 4051,
      "##flow": 4052,
      "##alue": 4053,
      "##acy": 4054,
      "ĠTheorem": 4055,
      "Ġlocation": 4056,
      "Ġdifferences": 4057,
      "##istics": 4058,
      "##ikip": 4059,
      "does": 4060,
      "##enge": 4061,
      "Ġpairs": 4062,
      "Ġexperiments": 4063,
      "Spec": 4064,
      "Ġorigin": 4065,
      "##BC": 4066,
      "##ygen": 4067,
      "Ġprom": 4068,
      "##iding": 4069,
      "######": 4070,
      "ĠAd": 4071,
      "Ġband": 4072,
      "}}{\\": 4073,
      "Ġmaterials": 4074,
      "Ġcorrelation": 4075,
      "##UT": 4076,
      "Ġreturns": 4077,
      "Ġperformed": 4078,
      "Ġpi": 4079,
      "Ġcover": 4080,
      "##sert": 4081,
      "input": 4082,
      "ap": 4083,
      "Ġtechniques": 4084,
      "Ed": 4085,
      "##scill": 4086,
      "Ġaccur": 4087,
      "Ġgoes": 4088,
      "Ġmoney": 4089,
      "state": 4090,
      "Ġmagnitude": 4091,
      "Ġforms": 4092,
      "Ġoperators": 4093,
      "##iable": 4094,
      "##osen": 4095,
      "Ġstar": 4096,
      "##length": 4097,
      "##ontal": 4098,
      "Ġsolving": 4099,
      "Ġla": 4100,
      "Ġmeaning": 4101,
      "##bedd": 4102,
      "ĠCar": 4103,
      "##ryst": 4104,
      "Ġtransition": 4105,
      "Ġintegr": 4106,
      "##hest": 4107,
      "##atial": 4108,
      "Ġeigenval": 4109,
      "eq": 4110,
      "Ġstarting": 4111,
      "##obob": 4112,
      "Ġdiscrete": 4113,
      "Finally": 4114,
      "Ġweek": 4115,
      "##~~": 4116,
      "##faces": 4117,
      "Ġillust": 4118,
      "Ġminim": 4119,
      "ge": 4120,
      "year": 4121,
      "Zh": 4122,
      "##onym": 4123,
      "##aussian": 4124,
      "Ġdimensions": 4125,
      "Ġusers": 4126,
      "Ġalgebraic": 4127,
      "Ġspectrum": 4128,
      "##ikipedia": 4129,
      "##ception": 4130,
      "Ġdevice": 4131,
      "{(": 4132,
      "##vey": 4133,
      "##inct": 4134,
      "Ġvertical": 4135,
      "Ġnodes": 4136,
      "ĠEd": 4137,
      "Ġcritical": 4138,
      "Ġschool": 4139,
      "Ġcharg": 4140,
      "Ġbus": 4141,
      "##cules": 4142,
      "Further": 4143,
      "Ġnature": 4144,
      "Ġsmooth": 4145,
      "Ġexc": 4146,
      "find": 4147,
      "##omp": 4148,
      "ĠFigure": 4149,
      "file": 4150,
      "Ġattrib": 4151,
      "Ġcontin": 4152,
      "Ġemploy": 4153,
      "##package": 4154,
      "##IR": 4155,
      "##ochastic": 4156,
      "##uzz": 4157,
      "Ġdescription": 4158,
      "##aper": 4159,
      "##uild": 4160,
      "Ġnothing": 4161,
      "Ġfeel": 4162,
      "##ethods": 4163,
      "##olor": 4164,
      "Ġrob": 4165,
      "##ued": 4166,
      "##ev": 4167,
      "##iki": 4168,
      "##iver": 4169,
      "Ġcombination": 4170,
      "ĠMay": 4171,
      "start": 4172,
      "##eros": 4173,
      "appro": 4174,
      "##opic": 4175,
      "Ġessential": 4176,
      ")}$": 4177,
      "##ogram": 4178,
      "##off": 4179,
      "rec": 4180,
      "##HE": 4181,
      "Sep": 4182,
      "Ġareas": 4183,
      ")}{": 4184,
      "Ġfundamental": 4185,
      "Ġslight": 4186,
      "##ao": 4187,
      "usepackage": 4188,
      "##nc": 4189,
      "##ried": 4190,
      "Ġproduced": 4191,
      "Just": 4192,
      "Ġring": 4193,
      "Refere": 4194,
      "Ġdiscussion": 4195,
      "ĠPre": 4196,
      "##................": 4197,
      "Î²": 4198,
      "Ġprecise": 4199,
      "Ġestimates": 4200,
      "##artment": 4201,
      "Return": 4202,
      "Last": 4203,
      "Ġcard": 4204,
      "##AG": 4205,
      "vari": 4206,
      "}_{\\": 4207,
      "Ġrole": 4208,
      "ang": 4209,
      "##ula": 4210,
      "Ġlibrary": 4211,
      "Ġstatistical": 4212,
      "Ġrecord": 4213,
      "##mosp": 4214,
      "conf": 4215,
      "##oring": 4216,
      "Ġeasier": 4217,
      "Ġcontinu": 4218,
      "##oms": 4219,
      "Step": 4220,
      "##quares": 4221,
      "Ġsources": 4222,
      "Ġresid": 4223,
      "##rak": 4224,
      "Ġwidth": 4225,
      "ĠJun": 4226,
      "Ġarguments": 4227,
      "##rist": 4228,
      "##ansion": 4229,
      "Ġprinciple": 4230,
      "##stein": 4231,
      "##acing": 4232,
      "Data": 4233,
      "Ġmeasures": 4234,
      "Ġrepresents": 4235,
      "##lier": 4236,
      "Ġtools": 4237,
      "##uper": 4238,
      "Ġspecies": 4239,
      "Ġarbitrary": 4240,
      "km": 4241,
      "Ġrelevant": 4242,
      "##amed": 4243,
      "Ġeverything": 4244,
      "##cast": 4245,
      "months": 4246,
      "##enn": 4247,
      "Ġaffect": 4248,
      "np": 4249,
      "ĠAug": 4250,
      "Ġpick": 4251,
      "}(\\": 4252,
      "Ġdeb": 4253,
      "Ġtang": 4254,
      "##enter": 4255,
      "ĠMe": 4256,
      "##ged": 4257,
      "Ġuncertain": 4258,
      "ĠMan": 4259,
      "Ġbottom": 4260,
      "Ġoptimization": 4261,
      "Two": 4262,
      "##ourier": 4263,
      "Ġinternal": 4264,
      "##ius": 4265,
      "Omega": 4266,
      "Ġcomplexity": 4267,
      "##ternational": 4268,
      "Ġestabl": 4269,
      "##acro": 4270,
      "bf": 4271,
      "Ġderived": 4272,
      "Ġcontroll": 4273,
      "Ġcurrently": 4274,
      "##range": 4275,
      "Ġfill": 4276,
      "##ging": 4277,
      "Ġevidence": 4278,
      "number": 4279,
      "##lement": 4280,
      "##duc": 4281,
      "Ġtriang": 4282,
      "Ġcomputation": 4283,
      "##cel": 4284,
      "Ġchain": 4285,
      "show": 4286,
      "Ġvertices": 4287,
      "ĠLaTeX": 4288,
      "Ġselected": 4289,
      "Ġscheme": 4290,
      "Ġactivity": 4291,
      "Ġreduce": 4292,
      "Ġcoordinate": 4293,
      "Ġbad": 4294,
      "Ġinteraction": 4295,
      "##inant": 4296,
      ")$,": 4297,
      "##ios": 4298,
      "##ithmetic": 4299,
      "Sp": 4300,
      "##ucl": 4301,
      "ÎĶ": 4302,
      "Ġconfiguration": 4303,
      "Ġ;": 4304,
      "Ġevolution": 4305,
      "##enari": 4306,
      "##uf": 4307,
      "Ġcause": 4308,
      "Ġslope": 4309,
      "##ris": 4310,
      "Ġaccuracy": 4311,
      "second": 4312,
      "Ġphen": 4313,
      "Ġconcentration": 4314,
      "##lling": 4315,
      "pt": 4316,
      "Ġextreme": 4317,
      "Ġgrid": 4318,
      "source": 4319,
      "fe": 4320,
      "Your": 4321,
      "##!!": 4322,
      "length": 4323,
      "##uary": 4324,
      "##ocol": 4325,
      "ext": 4326,
      "Ġreact": 4327,
      "##idation": 4328,
      "Get": 4329,
      "Ġresulting": 4330,
      "Ġweb": 4331,
      "Ob": 4332,
      "ĠOct": 4333,
      "geq": 4334,
      "Ġframework": 4335,
      "Ġidentity": 4336,
      "Ġexperimental": 4337,
      "Ġdistributions": 4338,
      "Ġfamily": 4339,
      "App": 4340,
      "Ġshare": 4341,
      "ĠMark": 4342,
      "##known": 4343,
      "Ġmissing": 4344,
      "Reg": 4345,
      "##CC": 4346,
      "Ġcle": 4347,
      "ĠSp": 4348,
      "Ġbenef": 4349,
      "Ġstarted": 4350,
      "ĠNe": 4351,
      "points": 4352,
      "##;\\": 4353,
      "label": 4354,
      "Ġconstruction": 4355,
      "##amer": 4356,
      "Ġage": 4357,
      "Ġsubset": 4358,
      "Ġep": 4359,
      "nd": 4360,
      "Thank": 4361,
      "Be": 4362,
      "operator": 4363,
      "##elp": 4364,
      "Ġcoupl": 4365,
      "Ġscore": 4366,
      "##rie": 4367,
      "##efore": 4368,
      "Ġfunctional": 4369,
      "ĠWe": 4370,
      "Ġinterested": 4371,
      "would": 4372,
      "Ġtransformation": 4373,
      "CO": 4374,
      "after": 4375,
      "bolds": 4376,
      "Ġdataset": 4377,
      "Ġrespons": 4378,
      "Ġcalculations": 4379,
      "##ometric": 4380,
      "##iation": 4381,
      "Ġoutside": 4382,
      "boldsymbol": 4383,
      "Ġstreng": 4384,
      "Ġsymmetric": 4385,
      "##FT": 4386,
      "Ġdeep": 4387,
      "Hi": 4388,
      "##lectric": 4389,
      "Ġneural": 4390,
      "sol": 4391,
      "##ractions": 4392,
      "Ġquadratic": 4393,
      "##\\\\": 4394,
      "##antum": 4395,
      "Ġgain": 4396,
      "##à¸": 4397,
      "Ġdiscussed": 4398,
      "##reat": 4399,
      "Ġarch": 4400,
      "Ġcompact": 4401,
      "âĨĴ": 4402,
      "kg": 4403,
      "Ġkin": 4404,
      "Ġmodul": 4405,
      "Ġincreased": 4406,
      "Ġreduced": 4407,
      "Ġgover": 4408,
      "âĢĿ,": 4409,
      "##iddle": 4410,
      "##self": 4411,
      "plot": 4412,
      "Ġtesting": 4413,
      "Ġadding": 4414,
      "Ġtrack": 4415,
      "Ġconnect": 4416,
      "Ġearly": 4417,
      "Google": 4418,
      "ĠMar": 4419,
      "Ġhappens": 4420,
      "dots": 4421,
      "##esh": 4422,
      "subset": 4423,
      "ĠSe": 4424,
      "Ġmentioned": 4425,
      "Ġfive": 4426,
      "ĠApr": 4427,
      "Ġhydrogen": 4428,
      "##iece": 4429,
      "Ġformal": 4430,
      "Similar": 4431,
      "Ġmaps": 4432,
      "Ġincludes": 4433,
      "##attice": 4434,
      "Ġcurves": 4435,
      "Ġstatistics": 4436,
      "cdots": 4437,
      "Ġcycle": 4438,
      "Ġdirectory": 4439,
      "Sch": 4440,
      "user": 4441,
      "##more": 4442,
      "Rep": 4443,
      "##oud": 4444,
      "these": 4445,
      "Ġnan": 4446,
      "Ġlabel": 4447,
      "Ġrepresented": 4448,
      "Ġextra": 4449,
      "Ġbr": 4450,
      "Ġgradient": 4451,
      "Ġvideo": 4452,
      "##rame": 4453,
      "##raft": 4454,
      "Ġissues": 4455,
      "##abase": 4456,
      "may": 4457,
      "Ġreach": 4458,
      "##merican": 4459,
      "Ġsubs": 4460,
      "Ġparent": 4461,
      "Ġrev": 4462,
      "first": 4463,
      "Ġcompet": 4464,
      "path": 4465,
      "Ġhealth": 4466,
      "Ġdetect": 4467,
      "Ġwon": 4468,
      "map": 4469,
      "Ġdecl": 4470,
      "ĠUS": 4471,
      "tem": 4472,
      "Ġopposite": 4473,
      "Ġflo": 4474,
      "ĠModel": 4475,
      "ĠBl": 4476,
      "Ġgets": 4477,
      "Ġestimated": 4478,
      "Ġelectro": 4479,
      "##ensive": 4480,
      "Ġtechnique": 4481,
      "##aring": 4482,
      "Rem": 4483,
      "Ġbuilt": 4484,
      "Ġdecom": 4485,
      "Ġfix": 4486,
      "prime": 4487,
      "Ġdeviation": 4488,
      "##cell": 4489,
      "Ġche": 4490,
      "##aker": 4491,
      "Ġcategor": 4492,
      "##ober": 4493,
      "ĠĠĠĠĠĠĠĠ": 4494,
      "Ġcompany": 4495,
      "index": 4496,
      "##ridge": 4497,
      "##utorial": 4498,
      "Trans": 4499,
      "Ġassess": 4500,
      "##jective": 4501,
      "Ġideal": 4502,
      "##ifies": 4503,
      "ĠFeb": 4504,
      "##oon": 4505,
      "##ingu": 4506,
      "Rev": 4507,
      "Ġsolid": 4508,
      "Bl": 4509,
      "Ġtravel": 4510,
      "ĠĠĠĠĠĠĠĠĠĠĠĠĠ": 4511,
      "##inc": 4512,
      "tan": 4513,
      "##icles": 4514,
      "met": 4515,
      "##Cl": 4516,
      "##ms": 4517,
      "Ġland": 4518,
      "##ptim": 4519,
      "##??": 4520,
      "Ïĥ": 4521,
      "Ġasked": 4522,
      "**": 4523,
      "Ġanyone": 4524,
      "Ġexistence": 4525,
      "##ogen": 4526,
      "##rel": 4527,
      "Ġupon": 4528,
      "Ġextension": 4529,
      "Ġfine": 4530,
      "Ġconsistent": 4531,
      "\\$": 4532,
      "Ġbackground": 4533,
      "html": 4534,
      "here": 4535,
      "Ġrank": 4536,
      "Ġanalog": 4537,
      "##atistics": 4538,
      "##ache": 4539,
      "Ġprop": 4540,
      "Ġart": 4541,
      "both": 4542,
      "##ociety": 4543,
      "##comm": 4544,
      "Ġstable": 4545,
      "Ġintegration": 4546,
      "Ġstars": 4547,
      "##ones": 4548,
      "Ġefficiency": 4549,
      "##clus": 4550,
      "##omb": 4551,
      "##ino": 4552,
      "Ġmetal": 4553,
      "Ġfully": 4554,
      "Ġstress": 4555,
      "Ġrotation": 4556,
      "off": 4557,
      "bit": 4558,
      "##omorphism": 4559,
      "Ġauthors": 4560,
      "Ġever": 4561,
      "Ġinvari": 4562,
      "##ynamics": 4563,
      "ĠResearch": 4564,
      "##versal": 4565,
      "##aa": 4566,
      "Ġprocedure": 4567,
      "Ne": 4568,
      "##))": 4569,
      "bmatrix": 4570,
      "##rable": 4571,
      "Non": 4572,
      "ĠEquations": 4573,
      "##lectron": 4574,
      "free": 4575,
      "##down": 4576,
      "Ġexternal": 4577,
      "Ġlimited": 4578,
      "Ġwaves": 4579,
      "Problem": 4580,
      "langle": 4581,
      "ĠScholar": 4582,
      "##ibly": 4583,
      "import": 4584,
      "Ġhypothesis": 4585,
      "Jul": 4586,
      "##avid": 4587,
      "Ġreduction": 4588,
      "Ġmodule": 4589,
      "Ġnucle": 4590,
      "##umin": 4591,
      "Ġconvergence": 4592,
      "Ġpure": 4593,
      "##uler": 4594,
      "Ġabsor": 4595,
      "Ġ_": 4596,
      "Ġgoal": 4597,
      ".$": 4598,
      "}+\\": 4599,
      "Ġadvant": 4600,
      "Ġtreatment": 4601,
      "act": 4602,
      "Ġcontact": 4603,
      "=(": 4604,
      "Ġcomparison": 4605,
      "Ġchannel": 4606,
      "Ġinequality": 4607,
      "##reed": 4608,
      "##ä»": 4609,
      "Ġgravity": 4610,
      "##atur": 4611,
      "Ġadjust": 4612,
      "py": 4613,
      "Ġfair": 4614,
      "Ġrecogn": 4615,
      "Ge": 4616,
      "Orig": 4617,
      "Ġfalse": 4618,
      "Ġthinking": 4619,
      "##ishing": 4620,
      "Another": 4621,
      "##OL": 4622,
      ">>>": 4623,
      "days": 4624,
      "Ġappears": 4625,
      "##bar": 4626,
      "Ġseparate": 4627,
      "##In": 4628,
      "Ġresource": 4629,
      "([": 4630,
      "Ġregions": 4631,
      "ver": 4632,
      "Ġagree": 4633,
      "Ġwar": 4634,
      "##ptic": 4635,
      "di": 4636,
      "##heet": 4637,
      "##ING": 4638,
      "Ġreplace": 4639,
      "Ġhope": 4640,
      "Ġleg": 4641,
      "float": 4642,
      "although": 4643,
      "Ġste": 4644,
      "Ġradiation": 4645,
      "Ġresistance": 4646,
      "Although": 4647,
      "ĠIs": 4648,
      "##MS": 4649,
      "Ġoscill": 4650,
      "hspace": 4651,
      "Ġthread": 4652,
      "Ġexpressed": 4653,
      "##unch": 4654,
      "ĠStud": 4655,
      "dc": 4656,
      "##ender": 4657,
      "##rial": 4658,
      "Ġdiagonal": 4659,
      "Ġcolumns": 4660,
      "##outh": 4661,
      "Ġforward": 4662,
      "arg": 4663,
      "Ġsituation": 4664,
      "Ġcompare": 4665,
      "Ġparticip": 4666,
      "perm": 4667,
      "Ġexisting": 4668,
      "##like": 4669,
      "Ġcollection": 4670,
      "Ġforces": 4671,
      ",\"": 4672,
      "Ġstop": 4673,
      "Ġwebs": 4674,
      "Ġcosts": 4675,
      "Ġcompil": 4676,
      "Ġquantity": 4677,
      "Ġlimits": 4678,
      "##IG": 4679,
      "Ġstream": 4680,
      "Ġwindow": 4681,
      "##reshold": 4682,
      "Ġinterface": 4683,
      "ĠAnd": 4684,
      "Ġ->": 4685,
      "Ġfaster": 4686,
      "Ġpeak": 4687,
      "##ifically": 4688,
      "ĠOr": 4689,
      "Ġdays": 4690,
      "Ġcool": 4691,
      "##phi": 4692,
      "Table": 4693,
      "Ġassumption": 4694,
      "Ġgovern": 4695,
      "##sel": 4696,
      "ĠCo": 4697,
      "Ġhighly": 4698,
      "Ġign": 4699,
      "Ġexplanation": 4700,
      "##ogeneous": 4701,
      "Ġprocessing": 4702,
      "Ġtensor": 4703,
      "##word": 4704,
      "Ġdecision": 4705,
      "Ġdesigned": 4706,
      "Ġentry": 4707,
      "##icon": 4708,
      "Ġextract": 4709,
      "Ġcommunity": 4710,
      "##tings": 4711,
      "Ġhorizontal": 4712,
      "ĠMathematical": 4713,
      "Ġbounded": 4714,
      "Ġliquid": 4715,
      "ÏĨ": 4716,
      "IN": 4717,
      "##plete": 4718,
      "##aged": 4719,
      "##esign": 4720,
      "##ession": 4721,
      "##itable": 4722,
      "linear": 4723,
      "Ġpicture": 4724,
      "gl": 4725,
      "Ġneighb": 4726,
      "Ġattack": 4727,
      "##ineering": 4728,
      "Ġexpansion": 4729,
      "any": 4730,
      "ĠForm": 4731,
      "Ġideas": 4732,
      "##inter": 4733,
      "Co": 4734,
      "__": 4735,
      "true": 4736,
      "##atform": 4737,
      "Ġgr": 4738,
      "square": 4739,
      "Ġalternative": 4740,
      "##eline": 4741,
      "Comp": 4742,
      "Ġedges": 4743,
      "Ġscenari": 4744,
      "##itational": 4745,
      "Ġchanged": 4746,
      "##Ã¡": 4747,
      "##we": 4748,
      "Ġmultiplication": 4749,
      "Where": 4750,
      "##AD": 4751,
      "bin": 4752,
      "();": 4753,
      "Gamma": 4754,
      "Ġupdate": 4755,
      "##gain": 4756,
      "Ġacceleration": 4757,
      "##CM": 4758,
      "##alink": 4759,
      "Ġconvert": 4760,
      "Ġstrate": 4761,
      "##cule": 4762,
      "##ager": 4763,
      "double": 4764,
      "Ġintroduced": 4765,
      "##ken": 4766,
      "Ġstrategy": 4767,
      "##ivari": 4768,
      "Ġbuilding": 4769,
      "output": 4770,
      "Ġsignificantly": 4771,
      "##PU": 4772,
      "##omic": 4773,
      "##riction": 4774,
      "string": 4775,
      "##amil": 4776,
      "##osing": 4777,
      "âĢĿ.": 4778,
      "##ecture": 4779,
      "Ġflux": 4780,
      "##uls": 4781,
      "Ġconstraints": 4782,
      "##plicated": 4783,
      "Rel": 4784,
      "Ġtoday": 4785,
      "##hel": 4786,
      "Ġdistributed": 4787,
      "Ġsubg": 4788,
      "Nov": 4789,
      "Ġtransport": 4790,
      "Ġchosen": 4791,
      "Ġmolecules": 4792,
      "##isation": 4793,
      "item": 4794,
      "else": 4795,
      "Ġge": 4796,
      "##echan": 4797,
      "##adem": 4798,
      "Ġ${\\": 4799,
      "Ġconvex": 4800,
      "Ġexpressions": 4801,
      "Ġcop": 4802,
      "Ġactive": 4803,
      "##ikeli": 4804,
      "##inder": 4805,
      "Ġdiss": 4806,
      "##CT": 4807,
      "QE": 4808,
      "];": 4809,
      "Ġcomputed": 4810,
      "}}$$": 4811,
      "Ġorth": 4812,
      "scale": 4813,
      "Ġallowed": 4814,
      "Ġrelatively": 4815,
      "Ġscreen": 4816,
      "Ġgalax": 4817,
      "Ġcomputing": 4818,
      "##ikelihood": 4819,
      "Ġmarg": 4820,
      "Ġapproaches": 4821,
      "True": 4822,
      "Ġsocial": 4823,
      "##utation": 4824,
      "Ġswitch": 4825,
      "Ġnet": 4826,
      "##ifferential": 4827,
      "##ovember": 4828,
      "Ġstudent": 4829,
      "##uming": 4830,
      "Ġcore": 4831,
      "##orry": 4832,
      "Ġachieve": 4833,
      "Act": 4834,
      "##iem": 4835,
      "âĢ²": 4836,
      "sec": 4837,
      "##iers": 4838,
      "Ġdepth": 4839,
      "Ġscalar": 4840,
      "##mitted": 4841,
      "Number": 4842,
      "Ġincluding": 4843,
      "##pd": 4844,
      "Ġcounter": 4845,
      "##plementary": 4846,
      "##bability": 4847,
      "Ġoverall": 4848,
      "values": 4849,
      "##aut": 4850,
      "Ġblog": 4851,
      "Ġwond": 4852,
      "ĠII": 4853,
      "Ġempty": 4854,
      "Ġcapt": 4855,
      "##aging": 4856,
      "Most": 4857,
      "##older": 4858,
      "##ails": 4859,
      "##ranch": 4860,
      "Equ": 4861,
      "##seud": 4862,
      "##uk": 4863,
      "Ġreported": 4864,
      "ĠChapter": 4865,
      "two": 4866,
      "##egative": 4867,
      "##ying": 4868,
      "Ġtowards": 4869,
      "Type": 4870,
      "##rown": 4871,
      "##eometry": 4872,
      "Ġcorrel": 4873,
      "^*": 4874,
      "cons": 4875,
      "##go": 4876,
      "##stim": 4877,
      "Ġfac": 4878,
      "Ġdecay": 4879,
      "Ġedit": 4880,
      "##ij": 4881,
      "Ġdiameter": 4882,
      "ĠJul": 4883,
      "Ġembedd": 4884,
      "ĠRep": 4885,
      "##onymous": 4886,
      "Ġslightly": 4887,
      "{-": 4888,
      "##cember": 4889,
      "((": 4890,
      "##plate": 4891,
      "Ġsil": 4892,
      "##antom": 4893,
      "gener": 4894,
      "##eria": 4895,
      "Ġresist": 4896,
      "back": 4897,
      "Ġability": 4898,
      "##aven": 4899,
      "mathit": 4900,
      "Ġtheoretical": 4901,
      "Ġdate": 4902,
      "Ġalign": 4903,
      "aligned": 4904,
      "='": 4905,
      "ĠBe": 4906,
      "Ġinteract": 4907,
      "##roups": 4908,
      "Does": 4909,
      "Ġsound": 4910,
      "Ġidentify": 4911,
      "ĠMon": 4912,
      "Ġroots": 4913,
      "Ġsequences": 4914,
      "cap": 4915,
      "##anges": 4916,
      "##ills": 4917,
      "##RO": 4918,
      "Ac": 4919,
      "Ġatmosp": 4920,
      "={": 4921,
      "Ġtim": 4922,
      "ĠĠĠĠĠĠĠĠĠĠĠĠĠĠĠĠĠ": 4923,
      "without": 4924,
      "run": 4925,
      "Ġsix": 4926,
      "Ġspecify": 4927,
      "Ġsymmetry": 4928,
      "##escription": 4929,
      "##itative": 4930,
      "ĠYou": 4931,
      "}[": 4932,
      "ĠTable": 4933,
      "Ġsampling": 4934,
      "##py": 4935,
      "were": 4936,
      "ãĢĤ": 4937,
      "count": 4938,
      "ĠSci": 4939,
      "Ġspatial": 4940,
      "Ġsaf": 4941,
      "##ulations": 4942,
      "ĠAb": 4943,
      "##vals": 4944,
      "##umm": 4945,
      "##sis": 4946,
      "##mediate": 4947,
      "({": 4948,
      "##RU": 4949,
      "Ġstability": 4950,
      "Follow": 4951,
      "Page": 4952,
      "$$-": 4953,
      "Ġmechanics": 4954,
      "Ġestimation": 4955,
      "Ġsegment": 4956,
      "Ġvariation": 4957,
      "ĠSub": 4958,
      "Ġformation": 4959,
      "Ġdynamic": 4960,
      "Ġconsists": 4961,
      "##ynamic": 4962,
      "Ġasympt": 4963,
      "Ġsus": 4964,
      "Ġindust": 4965,
      "Ġdownload": 4966,
      "##********": 4967,
      "Ġconcern": 4968,
      "})$": 4969,
      "ĠPar": 4970,
      "Ġdefin": 4971,
      "Ġclick": 4972,
      "Ġdetection": 4973,
      "##itivity": 4974,
      "##urope": 4975,
      "Ġearth": 4976,
      "long": 4977,
      "rule": 4978,
      "##ixt": 4979,
      "Ġaspect": 4980,
      "Ġselection": 4981,
      "Next": 4982,
      "Ġdenom": 4983,
      "php": 4984,
      "Ġachie": 4985,
      "ĠText": 4986,
      "##ait": 4987,
      "##ilde": 4988,
      "=-": 4989,
      "Ġuniverse": 4990,
      "##ancial": 4991,
      "random": 4992,
      "Full": 4993,
      "Ġclassification": 4994,
      "Ġgeometric": 4995,
      "ĠNo": 4996,
      "Ġpolicy": 4997,
      ",-": 4998,
      "Ġrepl": 4999,
      ",...": 5000,
      "Ġbin": 5001,
      "##rew": 5002,
      "Ġsolved": 5003,
      "ĠWindows": 5004,
      "##sy": 5005,
      "Ġearlier": 5006,
      "##arithm": 5007,
      "##ulated": 5008,
      "##ptember": 5009,
      "rem": 5010,
      "Ġrequest": 5011,
      "La": 5012,
      "Ġmonth": 5013,
      "Ġprediction": 5014,
      "Ġformulas": 5015,
      "Ġsingular": 5016,
      "Ġmis": 5017,
      "Inter": 5018,
      "den": 5019,
      "[\\": 5020,
      "Ġspectral": 5021,
      "##aul": 5022,
      "Ġvary": 5023,
      "Ġresolution": 5024,
      "Ġfront": 5025,
      "\\}$": 5026,
      "##reci": 5027,
      "div": 5028,
      "work": 5029,
      "Ġserver": 5030,
      "Ġdistinct": 5031,
      "Ġmeet": 5032,
      "##ructions": 5033,
      "Ġhistory": 5034,
      "##net": 5035,
      "Ġworth": 5036,
      "Ġsometimes": 5037,
      "En": 5038,
      "##ister": 5039,
      "Ġcircum": 5040,
      "##Ã¼": 5041,
      "Ġoccurs": 5042,
      "Ġdemand": 5043,
      "most": 5044,
      "##overy": 5045,
      "Ġadapt": 5046,
      "CH": 5047,
      "Ġformed": 5048,
      "##clude": 5049,
      "Ġthermal": 5050,
      "Ġpublished": 5051,
      "xi": 5052,
      "Ġmen": 5053,
      "vector": 5054,
      "##aterial": 5055,
      "##ERT": 5056,
      "Ġround": 5057,
      "##erson": 5058,
      "integ": 5059,
      "##ulate": 5060,
      "##selves": 5061,
      "Ġsphere": 5062,
      "John": 5063,
      "##--------------------------------": 5064,
      "Even": 5065,
      "step": 5066,
      "##cip": 5067,
      "called": 5068,
      "Ġvac": 5069,
      "ĠWork": 5070,
      "##iber": 5071,
      "Pr": 5072,
      "who": 5073,
      "ĠPer": 5074,
      "##idden": 5075,
      "##|\\": 5076,
      "hours": 5077,
      "its": 5078,
      "Ġconcepts": 5079,
      "Ġast": 5080,
      "##PT": 5081,
      "Write": 5082,
      "Ġmechanism": 5083,
      "Ġconnection": 5084,
      "##asons": 5085,
      "xy": 5086,
      "please": 5087,
      "Ġunknown": 5088,
      "ĠSim": 5089,
      "instead": 5090,
      "Ġlargest": 5091,
      "should": 5092,
      "Em": 5093,
      "##rics": 5094,
      "##class": 5095,
      "Ġautomatically": 5096,
      "Man": 5097,
      "ell": 5098,
      "Ġpurpose": 5099,
      "'(": 5100,
      "nm": 5101,
      "Ġmaintain": 5102,
      "##omorphic": 5103,
      "##uations": 5104,
      "Ġinteractions": 5105,
      "Ġcontrast": 5106,
      "top": 5107,
      "##izations": 5108,
      "Ġimplies": 5109,
      "Ġphenomen": 5110,
      "Ġassumed": 5111,
      "Ġfluid": 5112,
      "ĠAss": 5113,
      "##ibraries": 5114,
      "Ġcovari": 5115,
      "Ġevaluate": 5116,
      "Ġreflect": 5117,
      "net": 5118,
      "Ġbul": 5119,
      "##irtual": 5120,
      "}]": 5121,
      "##used": 5122,
      "Ġcalculus": 5123,
      "varphi": 5124,
      "Ġservice": 5125,
      "dot": 5126,
      "Ġpriv": 5127,
      "ĠAlgebra": 5128,
      "ĠAs": 5129,
      "Ġbeam": 5130,
      "Ġconsequ": 5131,
      "Ġcorrectly": 5132,
      "Ġexpand": 5133,
      "ĠâĢĶ": 5134,
      "References": 5135,
      "Ġpresence": 5136,
      "ĠTest": 5137,
      "##rav": 5138,
      "Ġinvolved": 5139,
      "Ġharm": 5140,
      "Us": 5141,
      "Ġfri": 5142,
      "Ġcapacity": 5143,
      "Ġult": 5144,
      "Ġoxygen": 5145,
      "ĠPDF": 5146,
      "Ġsolar": 5147,
      "##OI": 5148,
      "Ġcyl": 5149,
      "Ġmolecular": 5150,
      "Ġwavelength": 5151,
      "ĠInter": 5152,
      "Ġdefinite": 5153,
      "Ġbehavi": 5154,
      "Ġcharacteristics": 5155,
      "Ġmus": 5156,
      "Ġresources": 5157,
      "Ġpiece": 5158,
      "##rightarrow": 5159,
      "##cer": 5160,
      "especially": 5161,
      "Ġsubstit": 5162,
      "##print": 5163,
      "##CD": 5164,
      "Ġcomments": 5165,
      "ĠBay": 5166,
      "Ġtypically": 5167,
      "Ġsimulations": 5168,
      "View": 5169,
      "Mon": 5170,
      "public": 5171,
      "ĠFourier": 5172,
      "Ġeffort": 5173,
      "Ġheav": 5174,
      "ĠApp": 5175,
      "Ġstudied": 5176,
      "Ġremove": 5177,
      "##rang": 5178,
      "##æľ": 5179,
      "Ġimpos": 5180,
      "##pend": 5181,
      "Ġcharacters": 5182,
      "Integ": 5183,
      "PDF": 5184,
      "Ġkernel": 5185,
      "Ġobservation": 5186,
      "Ġnotes": 5187,
      "ĠState": 5188,
      "minutes": 5189,
      "Ġstuff": 5190,
      "Ġtax": 5191,
      "Open": 5192,
      "##ilities": 5193,
      "##edu": 5194,
      "Ġweights": 5195,
      "Ġsymbols": 5196,
      "##ativity": 5197,
      "##erv": 5198,
      "Ġsupply": 5199,
      "ĠPart": 5200,
      "##board": 5201,
      "##ymmetric": 5202,
      "##lin": 5203,
      "Ġwebsite": 5204,
      "Ġclearly": 5205,
      "Ġbroad": 5206,
      "##arepsilon": 5207,
      "Ġdependent": 5208,
      "say": 5209,
      "Ġlattice": 5210,
      "Ġmembers": 5211,
      "Ġtangent": 5212,
      "Ġstrength": 5213,
      "ĠSolutions": 5214,
      "Ġtechnology": 5215,
      "ĠDi": 5216,
      "Ġ\\,": 5217,
      "Ġbehind": 5218,
      "Ġrecently": 5219,
      "##olf": 5220,
      "Ġwall": 5221,
      "Ġcr": 5222,
      "AB": 5223,
      "varepsilon": 5224,
      "Ġitems": 5225,
      "Ġdu": 5226,
      "sign": 5227,
      "Ġstochastic": 5228,
      "##äº": 5229,
      "fl": 5230,
      "Ġpan": 5231,
      "Ġpatterns": 5232,
      "Ġchapter": 5233,
      "Ġaccurate": 5234,
      "##ger": 5235,
      "Ġvs": 5236,
      "Ġdise": 5237,
      "pos": 5238,
      "title": 5239,
      "Ġprefer": 5240,
      "Ġfeedback": 5241,
      "Ġvariety": 5242,
      "Ġcryst": 5243,
      "Ġdecimal": 5244,
      "every": 5245,
      "Ġtopology": 5246,
      "##avor": 5247,
      "##aracter": 5248,
      "Ġedited": 5249,
      "angle": 5250,
      "Answer": 5251,
      "##itz": 5252,
      "Ġjoint": 5253,
      "Ġdou": 5254,
      "Â»": 5255,
      "##FF": 5256,
      "Ġpolynomials": 5257,
      "Ġleads": 5258,
      "##SB": 5259,
      "Free": 5260,
      "Ġatomic": 5261,
      "##arant": 5262,
      "ĠGaussian": 5263,
      "##uting": 5264,
      "Ġdivided": 5265,
      "Ġwhite": 5266,
      "Ġaim": 5267,
      "##ypes": 5268,
      "\",\"": 5269,
      "##);": 5270,
      "Ġprograms": 5271,
      "##rl": 5272,
      "##orage": 5273,
      "Ġdatabase": 5274,
      ".-": 5275,
      "operatorname": 5276,
      "Ġoptical": 5277,
      "Ġsupported": 5278,
      "##olved": 5279,
      "$$(": 5280,
      "}\\\\": 5281,
      "Time": 5282,
      "##asks": 5283,
      "Fe": 5284,
      "cor": 5285,
      "##oop": 5286,
      "Ġwanted": 5287,
      "ms": 5288,
      "##width": 5289,
      "##ret": 5290,
      "Ġdam": 5291,
      "##lab": 5292,
      "Ġdivis": 5293,
      "##iemann": 5294,
      "Ġsquares": 5295,
      "##ights": 5296,
      "ĠCol": 5297,
      "Car": 5298,
      "ĠReg": 5299,
      "##ano": 5300,
      "##sec": 5301,
      "##izer": 5302,
      "##ructural": 5303,
      "ĠAc": 5304,
      "Ġperiodic": 5305,
      "##race": 5306,
      "##ello": 5307,
      "read": 5308,
      "Ġphys": 5309,
      "Ġfont": 5310,
      "##ilter": 5311,
      "Ġstyle": 5312,
      "Ġscatter": 5313,
      "##ycl": 5314,
      "##emma": 5315,
      "Gu": 5316,
      "Ġlatter": 5317,
      "Stud": 5318,
      "##ye": 5319,
      "University": 5320,
      "Ġderivatives": 5321,
      "ĠIN": 5322,
      "Ġgeneralized": 5323,
      "Ġunderlying": 5324,
      "Ġprimary": 5325,
      "post": 5326,
      "Îµ": 5327,
      "phantom": 5328,
      "##âĢĶ": 5329,
      "##ured": 5330,
      "ij": 5331,
      "Ġstatements": 5332,
      "##yond": 5333,
      "Calculate": 5334,
      "Both": 5335,
      "ĠQuestions": 5336,
      "Ġtor": 5337,
      "Ġpol": 5338,
      "Ġstation": 5339,
      "Ġcame": 5340,
      "Ġface": 5341,
      "##Hz": 5342,
      "into": 5343,
      "##RI": 5344,
      "##amilton": 5345,
      "##overed": 5346,
      "Ġquickly": 5347,
      "##rs": 5348,
      "##gebras": 5349,
      "Ġhighest": 5350,
      "Ġcand": 5351,
      "Ġarithmetic": 5352,
      "Ġdual": 5353,
      "Ġprecision": 5354,
      ":=": 5355,
      "Moreover": 5356,
      "Share": 5357,
      "Ġgeneration": 5358,
      "Ġtrig": 5359,
      "##ancy": 5360,
      "Ġstri": 5361,
      "std": 5362,
      "##cp": 5363,
      "Ġprogress": 5364,
      "ĠGu": 5365,
      "ĠMember": 5366,
      "Ġcharacteristic": 5367,
      "##abla": 5368,
      "Ġcub": 5369,
      "Ġtook": 5370,
      "Ġorient": 5371,
      "Ġsignals": 5372,
      "Ġstack": 5373,
      "Ġcompound": 5374,
      "Ġangular": 5375,
      "Ġmeas": 5376,
      "##issions": 5377,
      "stack": 5378,
      "Second": 5379,
      "Ġbeginning": 5380,
      "##ulse": 5381,
      "Ġincome": 5382,
      "ĠPress": 5383,
      "Ġusual": 5384,
      "Ġapproximately": 5385,
      "ĠOn": 5386,
      "Ġimplemented": 5387,
      "mid": 5388,
      "ĠOb": 5389,
      "}}_{": 5390,
      "Rightarrow": 5391,
      "##================": 5392,
      "##mann": 5393,
      "Ġhouse": 5394,
      "Ġentropy": 5395,
      "##rug": 5396,
      "##RE": 5397,
      "##RL": 5398,
      "Ġmapping": 5399,
      "/(": 5400,
      "Once": 5401,
      "##ae": 5402,
      "##IL": 5403,
      "##yd": 5404,
      "prov": 5405,
      "mat": 5406,
      "Ġshowed": 5407,
      "âĪĪ": 5408,
      "Ġblue": 5409,
      "##lege": 5410,
      "##head": 5411,
      "##swers": 5412,
      "Ġgravitational": 5413,
      "Ġindicate": 5414,
      "Ġpapers": 5415,
      "hand": 5416,
      "Ġmacro": 5417,
      "##rates": 5418,
      "##ilos": 5419,
      "ĠEnglish": 5420,
      "##aily": 5421,
      "Ġpreviously": 5422,
      "Ġchanging": 5423,
      "man": 5424,
      "sup": 5425,
      "Ġstored": 5426,
      ")*": 5427,
      "##rade": 5428,
      "Ġeduc": 5429,
      "Ġpow": 5430,
      "##ologies": 5431,
      "##redict": 5432,
      "Ġinputs": 5433,
      "##pective": 5434,
      "Ġholds": 5435,
      "##ographic": 5436,
      "##dent": 5437,
      "##unc": 5438,
      "default": 5439,
      "Ġtun": 5440,
      "Ġreve": 5441,
      "##pid": 5442,
      "stud": 5443,
      "ĠIt": 5444,
      "##ruary": 5445,
      "##istribution": 5446,
      "Ġtend": 5447,
      "##emb": 5448,
      "##pol": 5449,
      "##},": 5450,
      "Ġshall": 5451,
      "##iling": 5452,
      "##urface": 5453,
      "##lliptic": 5454,
      "Ġconj": 5455,
      "Ġdisk": 5456,
      "make": 5457,
      "Try": 5458,
      "##imeter": 5459,
      "##ael": 5460,
      "zero": 5461,
      "Introduction": 5462,
      "ĠST": 5463,
      "Ġsaying": 5464,
      "Ġtransl": 5465,
      "Ġconsum": 5466,
      "eta": 5467,
      "section": 5468,
      "mathf": 5469,
      "##ien": 5470,
      "##oun": 5471,
      "ĠSep": 5472,
      "##isson": 5473,
      "pmatrix": 5474,
      "##inations": 5475,
      "Ġsecurity": 5476,
      "##igger": 5477,
      "Ġcomplicated": 5478,
      "Ġstore": 5479,
      "Ġdetailed": 5480,
      "key": 5481,
      "Ste": 5482,
      "mathfrak": 5483,
      "our": 5484,
      "Ġmolecule": 5485,
      "##NN": 5486,
      "Ġpercentage": 5487,
      "},\\": 5488,
      "Ġdevices": 5489,
      "##augh": 5490,
      "Every": 5491,
      "Ġfirm": 5492,
      "det": 5493,
      "Ġshift": 5494,
      "nabla": 5495,
      "Posted": 5496,
      "Ġliterature": 5497,
      "ST": 5498,
      "##naly": 5499,
      "Ġremains": 5500,
      "degrees": 5501,
      "Ġstock": 5502,
      "Ġcomposition": 5503,
      "Ġ~": 5504,
      "##ibration": 5505,
      "Ġbusiness": 5506,
      "Ġinner": 5507,
      "Ġdesired": 5508,
      "Ġthick": 5509,
      "ĠYork": 5510,
      "Ġexplained": 5511,
      "Ġplug": 5512,
      "Proof": 5513,
      "##ceedings": 5514,
      "Read": 5515,
      "Ġattention": 5516,
      "Ġscientific": 5517,
      "tri": 5518,
      "dim": 5519,
      "Ïī": 5520,
      "Spr": 5521,
      "##umb": 5522,
      "##epartment": 5523,
      "cell": 5524,
      "ĠTechn": 5525,
      "Ġthreshold": 5526,
      "Ġabstract": 5527,
      "Ġhelps": 5528,
      "ĠNetwork": 5529,
      "##irr": 5530,
      "##aching": 5531,
      "##ka": 5532,
      "##EEE": 5533,
      "##rc": 5534,
      "##cret": 5535,
      "##oul": 5536,
      "##brid": 5537,
      "abs": 5538,
      "Ġquas": 5539,
      "Ġemission": 5540,
      "Ġintroduce": 5541,
      "Ġdrop": 5542,
      "Ġprotocol": 5543,
      "code": 5544,
      "ĠOpen": 5545,
      "open": 5546,
      "Ġpix": 5547,
      "Ġremaining": 5548,
      "calcul": 5549,
      "ĠNov": 5550,
      "##ENT": 5551,
      "Ġoverl": 5552,
      "Ġhost": 5553,
      "##TML": 5554,
      "##romagnetic": 5555,
      "Ġplease": 5556,
      "##oose": 5557,
      "##ynt": 5558,
      "Ġmix": 5559,
      "Ġcluster": 5560,
      "ĠPosted": 5561,
      "Ġcomputational": 5562,
      "Ġintu": 5563,
      "Ġkn": 5564,
      "result": 5565,
      "Ġspread": 5566,
      "Ġremember": 5567,
      "Ġletter": 5568,
      "Ġmodified": 5569,
      "Sm": 5570,
      "Ġmixed": 5571,
      "ot": 5572,
      "Ġsplit": 5573,
      "##inding": 5574,
      "thus": 5575,
      "|\\": 5576,
      "##inate": 5577,
      "Ġteam": 5578,
      "Ġrecommend": 5579,
      "Class": 5580,
      "Ġdoc": 5581,
      "##OP": 5582,
      "##ros": 5583,
      "Ġconvention": 5584,
      "Ġinfluence": 5585,
      "Ġdro": 5586,
      "ĠSection": 5587,
      "real": 5588,
      "Ġnull": 5589,
      "##ometry": 5590,
      "##aser": 5591,
      "Ġuns": 5592,
      "Ġreasons": 5593,
      "Key": 5594,
      "##lim": 5595,
      "##isher": 5596,
      "Ġmodern": 5597,
      "##ãĥ": 5598,
      "Ġtopics": 5599,
      "']": 5600,
      "Ġhole": 5601,
      "rather": 5602,
      "talk": 5603,
      "##command": 5604,
      "Const": 5605,
      "##upport": 5606,
      "##oe": 5607,
      "##CH": 5608,
      "##ether": 5609,
      "##alities": 5610,
      "Ġassumptions": 5611,
      "Ġmaxim": 5612,
      "According": 5613,
      "Max": 5614,
      "##iom": 5615,
      "ĠLi": 5616,
      "Definition": 5617,
      "##ortunately": 5618,
      "local": 5619,
      "Ġroom": 5620,
      "##DS": 5621,
      "Ġes": 5622,
      "##atever": 5623,
      "Ġtopological": 5624,
      "Ġposted": 5625,
      "##etime": 5626,
      "Ġextended": 5627,
      "Ġlinks": 5628,
      "node": 5629,
      "##rief": 5630,
      "##PL": 5631,
      "defined": 5632,
      "Ġmid": 5633,
      "Ġtutorial": 5634,
      "Ġdark": 5635,
      "Ġcommands": 5636,
      "Ġbeyond": 5637,
      "Ġanalyz": 5638,
      "follow": 5639,
      "Ġrecurs": 5640,
      "field": 5641,
      "Te": 5642,
      "Chapter": 5643,
      "Ġlack": 5644,
      "Ġdigits": 5645,
      "check": 5646,
      "Ġensure": 5647,
      "Ġdenominator": 5648,
      "Work": 5649,
      "ray": 5650,
      "ĠOF": 5651,
      "limits": 5652,
      "att": 5653,
      "Ġwin": 5654,
      "##oming": 5655,
      "Like": 5656,
      "##ford": 5657,
      "rad": 5658,
      "Ġpropag": 5659,
      "down": 5660,
      "high": 5661,
      "ĠSer": 5662,
      "##iliar": 5663,
      "equiv": 5664,
      "General": 5665,
      "Ġinstr": 5666,
      "##the": 5667,
      "known": 5668,
      "##\",": 5669,
      "Ġplaced": 5670,
      "##jects": 5671,
      "##utive": 5672,
      "##++": 5673,
      "\\;": 5674,
      "##words": 5675,
      "ĠThis": 5676,
      "##ogonal": 5677,
      "ĠLevel": 5678,
      "Ġmiddle": 5679,
      "Ġmultiply": 5680,
      "Ġworked": 5681,
      "##rained": 5682,
      "ĠPC": 5683,
      "##atures": 5684,
      "Discrete": 5685,
      "Ġbounds": 5686,
      "##osity": 5687,
      "##ooks": 5688,
      "Ġarc": 5689,
      "Ġtrend": 5690,
      "Ġidentified": 5691,
      "##ultaneous": 5692,
      "Ġcapital": 5693,
      "##aff": 5694,
      "Ġdivide": 5695,
      "Ġlanguages": 5696,
      "ĠLearning": 5697,
      "Test": 5698,
      "##DP": 5699,
      "Ġhandle": 5700,
      "Explanation": 5701,
      "your": 5702,
      "Ġdelay": 5703,
      "##pendicular": 5704,
      "Ġreferences": 5705,
      "##sych": 5706,
      "Ġobjective": 5707,
      "##ufact": 5708,
      "Ġsin": 5709,
      "Ġstage": 5710,
      "Ġ(\\": 5711,
      "Ġmut": 5712,
      "English": 5713,
      "##rice": 5714,
      "Ġmorph": 5715,
      "normal": 5716,
      "Ġmist": 5717,
      "method": 5718,
      "Ġcouple": 5719,
      "Ġdecrease": 5720,
      "Ġminimal": 5721,
      "Ġdocumentation": 5722,
      "##earn": 5723,
      "Ġuncertainty": 5724,
      "Ġflat": 5725,
      "Ġcred": 5726,
      "##sp": 5727,
      "Ġappreci": 5728,
      "Total": 5729,
      "##oisson": 5730,
      "Sigma": 5731,
      "Ġfractions": 5732,
      "Î³": 5733,
      "Ġplanet": 5734,
      "##Ex": 5735,
      "##rations": 5736,
      "Ġmodeling": 5737,
      "dig": 5738,
      "Ġdele": 5739,
      "include": 5740,
      "Ġturns": 5741,
      "Ġreactions": 5742,
      "Ġenh": 5743,
      "Ġindeed": 5744,
      "comput": 5745,
      "therefore": 5746,
      "ast": 5747,
      "##SP": 5748,
      "##roph": 5749,
      "Ġcombined": 5750,
      "Ġnotion": 5751,
      "Ġ==": 5752,
      "Many": 5753,
      "##mark": 5754,
      "##eck": 5755,
      "Ġdegrees": 5756,
      "Min": 5757,
      "##mat": 5758,
      "Ġdest": 5759,
      "RE": 5760,
      "Ġtypical": 5761,
      "Ġbalance": 5762,
      "##Xiv": 5763,
      "Ġremoved": 5764,
      "##ãĤ": 5765,
      "##ief": 5766,
      "##sl": 5767,
      "Ġprep": 5768,
      "tex": 5769,
      "Ġrout": 5770,
      "##nov": 5771,
      "##upplementary": 5772,
      "Furthermore": 5773,
      "Gl": 5774,
      "Ġproportion": 5775,
      "Ġpopular": 5776,
      "Ġboard": 5777,
      "##ivariate": 5778,
      "Ġwire": 5779,
      "permalink": 5780,
      "Home": 5781,
      "ĠGroup": 5782,
      "Ġguarant": 5783,
      "Examples": 5784,
      "Ġquot": 5785,
      "##ynamical": 5786,
      "##ales": 5787,
      "Col": 5788,
      "##SD": 5789,
      ",$": 5790,
      "##âĢĭ": 5791,
      "Ġlaws": 5792,
      "Ġmagnet": 5793,
      "##olve": 5794,
      "##orpor": 5795,
      "Ġsurvey": 5796,
      "Ġcollect": 5797,
      "ĠĠĠĠĠĠĠĠĠĠĠĠĠĠĠĠĠĠĠĠĠĠĠĠĠ": 5798,
      "Ġlayers": 5799,
      "Ġapproximate": 5800,
      "Ġpatients": 5801,
      "Ġpractical": 5802,
      "depend": 5803,
      "Ġplayer": 5804,
      "##gent": 5805,
      "except": 5806,
      "ĠAmerican": 5807,
      "Top": 5808,
      "ĠQuestion": 5809,
      "Over": 5810,
      "group": 5811,
      "##åı": 5812,
      "Ġnecessarily": 5813,
      "Ġcontinue": 5814,
      "NC": 5815,
      "##add": 5816,
      "Ver": 5817,
      "Ġdivision": 5818,
      "ÏĦ": 5819,
      "Ġsend": 5820,
      "Ġdecomposition": 5821,
      "Ġadvantage": 5822,
      "ĠEngineering": 5823,
      "option": 5824,
      "Ġeigenvalues": 5825,
      "Ġevaluation": 5826,
      "Ġtitle": 5827,
      "Ġintensity": 5828,
      "ce": 5829,
      "system": 5830,
      "##inux": 5831,
      "Ġchildren": 5832,
      ")|": 5833,
      "Ġidentical": 5834,
      "##reak": 5835,
      "Ġid": 5836,
      "##ux": 5837,
      "Ġstarts": 5838,
      "Ġrig": 5839,
      "Ġmanagement": 5840,
      "##anguage": 5841,
      "Ġonto": 5842,
      "Ġbrain": 5843,
      "Ġmember": 5844,
      "Ġthemselves": 5845,
      "Ġaud": 5846,
      "##erior": 5847,
      "##cean": 5848,
      "ĠInstitute": 5849,
      "Ġsurfaces": 5850,
      "Ġrows": 5851,
      "##math": 5852,
      "ĠInteg": 5853,
      "##heric": 5854,
      "##ha": 5855,
      "##ydro": 5856,
      "now": 5857,
      "Ġelim": 5858,
      "small": 5859,
      "##istory": 5860,
      "Ġclimate": 5861,
      "Di": 5862,
      "Ġtag": 5863,
      "width": 5864,
      "tag": 5865,
      "Ġmeant": 5866,
      "Ġplatform": 5867,
      "percent": 5868,
      "Ġdefinitions": 5869,
      "Ġinterpretation": 5870,
      "##volution": 5871,
      "##ultip": 5872,
      "Ġpull": 5873,
      "Ġpseud": 5874,
      "##co": 5875,
      "Ġintervals": 5876,
      "Ġbias": 5877,
      "##agraph": 5878,
      "Ġchart": 5879,
      "##elow": 5880,
      "Ġchalleng": 5881,
      "##requency": 5882,
      "ĠID": 5883,
      "Ġinfinity": 5884,
      "Ġproportional": 5885,
      "Ġpert": 5886,
      "draw": 5887,
      "Form": 5888,
      "##hell": 5889,
      "Ġstatic": 5890,
      "Name": 5891,
      "ĠProgram": 5892,
      "##OD": 5893,
      "requ": 5894,
      "##ractice": 5895,
      "##_{\\": 5896,
      "Ġprobabilities": 5897,
      "Ġsettings": 5898,
      "means": 5899,
      "##mediately": 5900,
      "ĠTo": 5901,
      "##ingle": 5902,
      "aut": 5903,
      "graph": 5904,
      "##bf": 5905,
      "Ġsave": 5906,
      "##ressed": 5907,
      "Ġsoon": 5908,
      "Ġcandid": 5909,
      "##ils": 5910,
      "Ġconject": 5911,
      "##cipal": 5912,
      "##uclide": 5913,
      "rd": 5914,
      "##asic": 5915,
      "Mark": 5916,
      "ĠAt": 5917,
      "why": 5918,
      "##lood": 5919,
      "##vest": 5920,
      "##fo": 5921,
      "Mathematics": 5922,
      "##mp": 5923,
      "Determ": 5924,
      "cent": 5925,
      "Ġfrequencies": 5926,
      "Ġtempor": 5927,
      "Ġspl": 5928,
      "Ġbranch": 5929,
      "Log": 5930,
      "Ġshell": 5931,
      "##omain": 5932,
      "[]": 5933,
      "##sible": 5934,
      "##comes": 5935,
      "Ġstand": 5936,
      "Ġshowing": 5937,
      "Ġtrain": 5938,
      "Ġanalys": 5939,
      "March": 5940,
      "Under": 5941,
      "##OW": 5942,
      "Ġblocks": 5943,
      "Wang": 5944,
      "##>>": 5945,
      "Ġrough": 5946,
      "##CE": 5947,
      "ĠFe": 5948,
      "January": 5949,
      "cs": 5950,
      "Ġetc": 5951,
      "##LS": 5952,
      "Ġhttp": 5953,
      "million": 5954,
      "##opt": 5955,
      "##perties": 5956,
      "Ġconstants": 5957,
      "Ġcorresponds": 5958,
      "Ġconserv": 5959,
      "##åŃ": 5960,
      "Ġenter": 5961,
      "##pirical": 5962,
      "Ġmedium": 5963,
      "Ġprofile": 5964,
      "##Pro": 5965,
      "Ġsubsequ": 5966,
      "Ġplaces": 5967,
      "Ġsurpr": 5968,
      "Ġindicates": 5969,
      "Ġpdf": 5970,
      "Ġsyn": 5971,
      "Ïģ": 5972,
      "Ġprevent": 5973,
      "##uge": 5974,
      "##elt": 5975,
      "otimes": 5976,
      "##</": 5977,
      "Ġexpert": 5978,
      "Ġdie": 5979,
      "##ichael": 5980,
      "Ġpositions": 5981,
      "}&": 5982,
      "ĠEnergy": 5983,
      "##ias": 5984,
      "Ġnamed": 5985,
      "Ġleave": 5986,
      "Ġexcept": 5987,
      "really": 5988,
      "Ġmaybe": 5989,
      "Ġbrow": 5990,
      "Check": 5991,
      "##rays": 5992,
      "Ġvan": 5993,
      "ĠTags": 5994,
      "Ġconversion": 5995,
      "##oom": 5996,
      "##placement": 5997,
      "II": 5998,
      "ĠReview": 5999,
      "Its": 6000,
      "dat": 6001,
      "Ġwalk": 6002,
      "Ġdescribes": 6003,
      "ĠMed": 6004,
      ",,": 6005,
      "##itory": 6006,
      ")?": 6007,
      "##ATE": 6008,
      "##gn": 6009,
      "Ġtheories": 6010,
      "ĠStates": 6011,
      "Ġpartition": 6012,
      "Ġarticles": 6013,
      "##ixture": 6014,
      "Ġnotice": 6015,
      "##RUE": 6016,
      "Ġnuclear": 6017,
      "Ġotherwise": 6018,
      "multi": 6019,
      "Ġcreating": 6020,
      "Create": 6021,
      "Ġnit": 6022,
      "Ġstatus": 6023,
      "Ġradio": 6024,
      "Ġutil": 6025,
      "List": 6026,
      "##vature": 6027,
      "##ners": 6028,
      "Ġlikelihood": 6029,
      "##herent": 6030,
      "##åĪ": 6031,
      "pages": 6032,
      "##Ã¤": 6033,
      "Ġpages": 6034,
      "go": 6035,
      "##atively": 6036,
      "Ġstrings": 6037,
      "Ġirre": 6038,
      "Ġpain": 6039,
      "##rence": 6040,
      "##apes": 6041,
      "pg": 6042,
      "ĠSciences": 6043,
      "ĠSo": 6044,
      "Ġsyntax": 6045,
      "##IV": 6046,
      "Only": 6047,
      "Ġrobust": 6048,
      "##periment": 6049,
      "Ġcycl": 6050,
      "Ġcommunication": 6051,
      "Î´": 6052,
      "comm": 6053,
      "##umerical": 6054,
      "##lements": 6055,
      "Ġsuitable": 6056,
      "$)": 6057,
      "Ġproved": 6058,
      "Ġsections": 6059,
      "##arp": 6060,
      "Ġdr": 6061,
      "Linear": 6062,
      "##angular": 6063,
      "##LAB": 6064,
      "ĠEn": 6065,
      "##auge": 6066,
      "##fill": 6067,
      "##mm": 6068,
      "##inated": 6069,
      "article": 6070,
      "'.": 6071,
      "##IP": 6072,
      "Ġstrongly": 6073,
      "Such": 6074,
      "Ġbatter": 6075,
      "ĠEq": 6076,
      "##illi": 6077,
      "Ġreceived": 6078,
      "ĠSociety": 6079,
      "Ġintersection": 6080,
      "Ġhelpful": 6081,
      "Springer": 6082,
      "Spe": 6083,
      "Ġpredicted": 6084,
      "Ġamplitude": 6085,
      "Ġplots": 6086,
      "Ġhence": 6087,
      "Ġreson": 6088,
      "ĠSte": 6089,
      "Ġtruth": 6090,
      "(),": 6091,
      "##herical": 6092,
      "Ġrelease": 6093,
      "Originally": 6094,
      "^{(": 6095,
      "Ġstrict": 6096,
      "ĠEquation": 6097,
      "##time": 6098,
      "##fig": 6099,
      "main": 6100,
      "Ġlogarithm": 6101,
      "=>": 6102,
      "Ġtriv": 6103,
      "mass": 6104,
      "Ġproduces": 6105,
      "Ġemail": 6106,
      "ĠLaw": 6107,
      "Instead": 6108,
      "##aste": 6109,
      "plt": 6110,
      "##stood": 6111,
      "Ġgreen": 6112,
      "ĠEurope": 6113,
      "Theorem": 6114,
      "##poses": 6115,
      "Fr": 6116,
      "##unk": 6117,
      "##ana": 6118,
      "Ġquantities": 6119,
      "sample": 6120,
      "Ġprojection": 6121,
      "Returns": 6122,
      "Ext": 6123,
      "ĠComp": 6124,
      "##uclidean": 6125,
      "Ġposts": 6126,
      "##ini": 6127,
      "##arb": 6128,
      "energy": 6129,
      "Ġstrateg": 6130,
      "ĠApplications": 6131,
      "##+\\": 6132,
      "Ġreasonable": 6133,
      "Ġdrive": 6134,
      "David": 6135,
      "##âĸ": 6136,
      "Vari": 6137,
      "##^{\\": 6138,
      "whereas": 6139,
      "Ġperturb": 6140,
      "ĠVari": 6141,
      "Ġentries": 6142,
      "tcp": 6143,
      "Ġextremely": 6144,
      "Volume": 6145,
      "){": 6146,
      "table": 6147,
      "Ġruns": 6148,
      ")[": 6149,
      "##erman": 6150,
      "Ġfinancial": 6151,
      "Ġattract": 6152,
      "Ġperpendicular": 6153,
      "Ġderive": 6154,
      "##ikz": 6155,
      "Ġdemonstrate": 6156,
      "ĠCal": 6157,
      "cf": 6158,
      "Ġbooks": 6159,
      "##Â·Â·Â·Â·": 6160,
      "Ġlearned": 6161,
      "ĠTHE": 6162,
      "Ġdisease": 6163,
      "##ATLAB": 6164,
      "Ġeconomic": 6165,
      "##}$$": 6166,
      "El": 6167,
      "ĠCa": 6168,
      "##amera": 6169,
      "Ġapplying": 6170,
      "}$$.": 6171,
      "##anging": 6172,
      "##icks": 6173,
      "must": 6174,
      "Ġalt": 6175,
      "##atistical": 6176,
      "ĠRiemann": 6177,
      "Ġdigit": 6178,
      "Ġtasks": 6179,
      "##greg": 6180,
      "Ġpassed": 6181,
      "November": 6182,
      "##well": 6183,
      "Function": 6184,
      "##Name": 6185,
      "tr": 6186,
      "##eep": 6187,
      "##quad": 6188,
      "Ġelastic": 6189,
      "Ġrapid": 6190,
      "Parameters": 6191,
      "shows": 6192,
      "Ġinvolving": 6193,
      "Ġdrawn": 6194,
      "##\"\"": 6195,
      "ĠGMAT": 6196,
      "Ġcountries": 6197,
      "ent": 6198,
      "##$\\": 6199,
      "##ipher": 6200,
      "Ġlisted": 6201,
      "Ġhaven": 6202,
      "Ġversions": 6203,
      "Ġpaths": 6204,
      "().": 6205,
      "Ġice": 6206,
      "bytes": 6207,
      "edu": 6208,
      "##chron": 6209,
      "Ġkinetic": 6210,
      "Ġfood": 6211,
      "Ġspectra": 6212,
      "Ġyourself": 6213,
      "Ġ####": 6214,
      "##omy": 6215,
      "Ġgave": 6216,
      "Ġgovernment": 6217,
      "Ġconsidering": 6218,
      "chi": 6219,
      "Ġrepresentations": 6220,
      "##iny": 6221,
      "Ġclean": 6222,
      "July": 6223,
      "Ġcommonly": 6224,
      "Ġexplicitly": 6225,
      "through": 6226,
      "Ġequivalence": 6227,
      "##QL": 6228,
      "Ġsmallest": 6229,
      "##âĢĵ": 6230,
      "##ondition": 6231,
      "ĠNewton": 6232,
      "dy": 6233,
      "Ġcatal": 6234,
      "Ġfamiliar": 6235,
      "##icate": 6236,
      "Similarly": 6237,
      "Ġwish": 6238,
      "##body": 6239,
      "ĠÂ±": 6240,
      "Ġtechnical": 6241,
      "Ġ!": 6242,
      "Ġletters": 6243,
      "Ġlens": 6244,
      "ĠJava": 6245,
      "current": 6246,
      "Ġtemperatures": 6247,
      "ĠHamilton": 6248,
      "Ġcosm": 6249,
      "##ductor": 6250,
      "Ġtwice": 6251,
      "##xx": 6252,
      "Ġcontract": 6253,
      "sl": 6254,
      "^-": 6255,
      "cal": 6256,
      "}-\\": 6257,
      "ĠNumber": 6258,
      "different": 6259,
      "Ġasking": 6260,
      "Maybe": 6261,
      "##atio": 6262,
      "Ġpredictions": 6263,
      "Ġcaused": 6264,
      "##ille": 6265,
      "Ġcategories": 6266,
      "##rosc": 6267,
      "Ġlocated": 6268,
      "Ġfoot": 6269,
      "Ġimmediately": 6270,
      "##order": 6271,
      "ĠProcess": 6272,
      "Output": 6273,
      "Ġclock": 6274,
      "#>": 6275,
      "Ġoffer": 6276,
      "Ġcarry": 6277,
      "##ref": 6278,
      "Comment": 6279,
      "Ġarrow": 6280,
      "Ġnovel": 6281,
      "##MC": 6282,
      "##isp": 6283,
      "ĠInternational": 6284,
      "##oper": 6285,
      "Gener": 6286,
      "##valu": 6287,
      "GMAT": 6288,
      "Ġgenerator": 6289,
      "Ġexchange": 6290,
      "##ribed": 6291,
      "Ġrectangle": 6292,
      "ÂĢ": 6293,
      "Ġmach": 6294,
      "mol": 6295,
      "##ename": 6296,
      "##eks": 6297,
      "Physics": 6298,
      "tcpdf": 6299,
      "Science": 6300,
      "##ications": 6301,
      "Ġsetup": 6302,
      "Ġcult": 6303,
      "##ulf": 6304,
      "Ġbelong": 6305,
      "##oke": 6306,
      "##osh": 6307,
      "Ġinstant": 6308,
      "##edge": 6309,
      "Ġforum": 6310,
      "Ġcalculating": 6311,
      "##eriv": 6312,
      "Ġcountry": 6313,
      "Î©": 6314,
      "Ġdoub": 6315,
      "tilde": 6316,
      "##what": 6317,
      "##ailed": 6318,
      "Ġdot": 6319,
      "##mod": 6320,
      "approx": 6321,
      "Ġdistingu": 6322,
      "Ġsummary": 6323,
      "column": 6324,
      "Ġpen": 6325,
      "Ġinvariant": 6326,
      "Ġconven": 6327,
      "Ġstorage": 6328,
      "Title": 6329,
      "ĠLog": 6330,
      "##MP": 6331,
      "##MA": 6332,
      "Ġgames": 6333,
      "Ġyes": 6334,
      "April": 6335,
      "Ġdisp": 6336,
      "Ġhot": 6337,
      "Ġdiver": 6338,
      "##QQ": 6339,
      "Ġresidual": 6340,
      "Ġsentence": 6341,
      "Ġeditor": 6342,
      "Location": 6343,
      "Exp": 6344,
      "##omas": 6345,
      "Ġoperating": 6346,
      "##fortunately": 6347,
      "Ġrequirements": 6348,
      "Ġengineering": 6349,
      "Ġexercise": 6350,
      "Ġmatching": 6351,
      "Ġlost": 6352,
      "Ġlif": 6353,
      "Based": 6354,
      "large": 6355,
      "Ġsun": 6356,
      "##bb": 6357,
      "##âĢĻ": 6358,
      "Ġintroduction": 6359,
      "Ġrepeated": 6360,
      "Ġ@@": 6361,
      "Ġcontribution": 6362,
      "Ġanim": 6363,
      "Ġcompounds": 6364,
      "Ġsizes": 6365,
      "acc": 6366,
      "Ġhour": 6367,
      "Ġdiffusion": 6368,
      "Ġoutcome": 6369,
      "Ġsimultaneous": 6370,
      "##EG": 6371,
      "Ġdigital": 6372,
      "Ġbehaviour": 6373,
      "%.": 6374,
      "Ġexhib": 6375,
      "Ġtested": 6376,
      "Ġbug": 6377,
      "void": 6378,
      "Ġteac": 6379,
      "##opes": 6380,
      "##ilbert": 6381,
      "##gies": 6382,
      "Ġforecast": 6383,
      "neq": 6384,
      "yes": 6385,
      "##king": 6386,
      "False": 6387,
      "Ġcertainly": 6388,
      "Ġchallenge": 6389,
      "Don": 6390,
      "thanks": 6391,
      "Ġcircular": 6392,
      "##EL": 6393,
      "Ġtables": 6394,
      "##eral": 6395,
      "Ġimproved": 6396,
      "image": 6397,
      "##ilosoph": 6398,
      "Ġpolyg": 6399,
      "ĠRec": 6400,
      "June": 6401,
      "##iring": 6402,
      "Ġmys": 6403,
      "implies": 6404,
      "##$.": 6405,
      "##olean": 6406,
      "lib": 6407,
      "Ġplus": 6408,
      "Ġcauses": 6409,
      "##ateral": 6410,
      "Ġopin": 6411,
      "newcommand": 6412,
      "Att": 6413,
      "Ġinvolves": 6414,
      "Ġwent": 6415,
      "##ounter": 6416,
      "Ġ-\\": 6417,
      "Multi": 6418,
      "Ġservices": 6419,
      "Ġâī": 6420,
      "##itudes": 6421,
      "##pite": 6422,
      "Ġessentially": 6423,
      "ĠRel": 6424,
      "##US": 6425,
      "##undred": 6426,
      "Ġarri": 6427,
      "Sci": 6428,
      "##ąĔ": 6429,
      "ĠMat": 6430,
      "##hens": 6431,
      "##(-": 6432,
      "##arter": 6433,
      "##arning": 6434,
      "dependent": 6435,
      "##oice": 6436,
      "Ġconstructed": 6437,
      "Ġsemi": 6438,
      "Graph": 6439,
      "Author": 6440,
      "Ġtrick": 6441,
      "Ġarchit": 6442,
      "Ġbonds": 6443,
      "##ierarch": 6444,
      "Ġtrees": 6445,
      "ĠSet": 6446,
      "ĠĠĠĠĠĠĠĠĠĠ": 6447,
      "âī¤": 6448,
      "Ġrise": 6449,
      "Ġinstalled": 6450,
      "##PC": 6451,
      "Ġleading": 6452,
      "Ġpoor": 6453,
      "October": 6454,
      "Ġcrypt": 6455,
      "Ġmob": 6456,
      "Ġupdated": 6457,
      "##rab": 6458,
      "##array": 6459,
      "Ġcontained": 6460,
      "##âĶĢâĶĢâĶĢâĶĢ": 6461,
      "##HC": 6462,
      "Ġconfidence": 6463,
      "}}=": 6464,
      "Ġadvanced": 6465,
      "Ġimportance": 6466,
      "Ġsatisfy": 6467,
      "##tz": 6468,
      "between": 6469,
      "Ġlive": 6470,
      "```": 6471,
      "##key": 6472,
      "total": 6473,
      "Ġsaw": 6474,
      "qquad": 6475,
      "Ġphoton": 6476,
      "cur": 6477,
      "##plicate": 6478,
      "Ġviol": 6479,
      "##omal": 6480,
      "Ġresearc": 6481,
      "##utative": 6482,
      "Ġrock": 6483,
      "Ġchance": 6484,
      "##ffic": 6485,
      "error": 6486,
      "':": 6487,
      "##roid": 6488,
      "Ġpersonal": 6489,
      "ĠâĢĺ": 6490,
      "Input": 6491,
      "Ġbund": 6492,
      "ĠMethods": 6493,
      "##reedom": 6494,
      "##DA": 6495,
      "Ġclar": 6496,
      "hence": 6497,
      "##kin": 6498,
      "Ġeveryone": 6499,
      "Ġisol": 6500,
      "ĠAC": 6501,
      "Ġsuggested": 6502,
      "Ġtriangles": 6503,
      "Ġfollowed": 6504,
      "Ġmoves": 6505,
      "##umbers": 6506,
      "incre": 6507,
      "Ġexponent": 6508,
      "##rust": 6509,
      "##RA": 6510,
      "Ġgap": 6511,
      "Ġaren": 6512,
      "Ġpowerful": 6513,
      "Ġrespond": 6514,
      "##orter": 6515,
      "##yper": 6516,
      "false": 6517,
      "##ns": 6518,
      "##lib": 6519,
      "##apor": 6520,
      "##war": 6521,
      "##Data": 6522,
      "Ġshad": 6523,
      "September": 6524,
      "##orous": 6525,
      "##ilit": 6526,
      "Ġagent": 6527,
      "Ġtalking": 6528,
      "Ġinform": 6529,
      "##tically": 6530,
      "##appa": 6531,
      "##åħ": 6532,
      "##uits": 6533,
      "##ls": 6534,
      "##SM": 6535,
      "Start": 6536,
      "[#": 6537,
      "##abled": 6538,
      "##acent": 6539,
      "Solve": 6540,
      "Ġcurvature": 6541,
      "##arse": 6542,
      "ĠAll": 6543,
      "##yst": 6544,
      "Ġsuggests": 6545,
      "ĠStatistics": 6546,
      "##irection": 6547,
      "##istent": 6548,
      "Big": 6549,
      "Ġsubtract": 6550,
      "##irror": 6551,
      "##EST": 6552,
      "Ġreveal": 6553,
      "Ġpossibility": 6554,
      "Ġproperly": 6555,
      "Ġachieved": 6556,
      "ĠControl": 6557,
      "ĠTe": 6558,
      "##vered": 6559,
      "##amm": 6560,
      "Algebra": 6561,
      "##idel": 6562,
      "##ryption": 6563,
      "Ġcodes": 6564,
      "##ugg": 6565,
      "Ġmanip": 6566,
      "Ġprotein": 6567,
      "norm": 6568,
      "##reement": 6569,
      "##ponent": 6570,
      "ĠStandard": 6571,
      "##aylor": 6572,
      "diff": 6573,
      "ĠEuler": 6574,
      "Ġpackages": 6575,
      "Ġordered": 6576,
      "##ÃŃ": 6577,
      "Ġdimensional": 6578,
      "Ġveh": 6579,
      "fit": 6580,
      "Ġtrou": 6581,
      "##etch": 6582,
      "Ġmanufact": 6583,
      "ÂĢÂ": 6584,
      "sage": 6585,
      "{{\\": 6586,
      "Ġbuy": 6587,
      "##TP": 6588,
      "##UL": 6589,
      "ĠGe": 6590,
      "Ġmotiv": 6591,
      "Quote": 6592,
      "Ġprecisely": 6593,
      "Ġflows": 6594,
      "%,": 6595,
      "Ġprojects": 6596,
      "Ġimpossible": 6597,
      "##host": 6598,
      "ĠFunctions": 6599,
      "##soft": 6600,
      "/\\": 6601,
      "##ians": 6602,
      "Ġoxidation": 6603,
      "##xide": 6604,
      "ĠMax": 6605,
      "\\|": 6606,
      "<=": 6607,
      "[[": 6608,
      "ĠNational": 6609,
      "being": 6610,
      "Ġneutrin": 6611,
      "##isual": 6612,
      "Ġmotor": 6613,
      "Ġscattering": 6614,
      "##ols": 6615,
      "##hom": 6616,
      "}^{-": 6617,
      "Det": 6618,
      "stackrel": 6619,
      "Ġcalls": 6620,
      "namely": 6621,
      "seconds": 6622,
      "Ġwarm": 6623,
      "##odium": 6624,
      "Ġoutcomes": 6625,
      "##instein": 6626,
      "Ġreturned": 6627,
      "##UM": 6628,
      "ĠSun": 6629,
      "forall": 6630,
      "##Type": 6631,
      "##vents": 6632,
      "Source": 6633,
      "##fix": 6634,
      "##br": 6635,
      "##ested": 6636,
      "standard": 6637,
      "##ellow": 6638,
      "ĠGraph": 6639,
      "Ġmyself": 6640,
      "##uum": 6641,
      "Ġiteration": 6642,
      "Ġprincipal": 6643,
      "ĠAI": 6644,
      "ĠCan": 6645,
      "Ġ(Ă": 6646,
      "Ġske": 6647,
      "Ġscenario": 6648,
      "Ġflex": 6649,
      "Ġpropose": 6650,
      "##uy": 6651,
      "Ġhours": 6652,
      "August": 6653,
      "##ett": 6654,
      "Pi": 6655,
      "##PR": 6656,
      "Ġopportun": 6657,
      "Ġdirections": 6658,
      "Ġcoming": 6659,
      "##TH": 6660,
      "ĠInformation": 6661,
      "Ġactions": 6662,
      "Ġindividuals": 6663,
      "Ġstructural": 6664,
      "##efined": 6665,
      "Ġthin": 6666,
      "Ġcompan": 6667,
      "##urg": 6668,
      "##erve": 6669,
      "box": 6670,
      "Ġgenerating": 6671,
      "Ġreconst": 6672,
      "Ġtrivial": 6673,
      "Ġdeath": 6674,
      "Ġsav": 6675,
      "Ġcube": 6676,
      "Ġmechanical": 6677,
      "Ġprofit": 6678,
      "Ġmodes": 6679,
      "Model": 6680,
      "Ġlists": 6681,
      "Ġjournal": 6682,
      "##ney": 6683,
      "December": 6684,
      "case": 6685,
      "Ġmanifold": 6686,
      "##bits": 6687,
      "Ġsensitivity": 6688,
      "Ġdetector": 6689,
      "ĠDynamical": 6690,
      "mode": 6691,
      "##nes": 6692,
      "Ġcoupling": 6693,
      "Ġten": 6694,
      "Ġorthogonal": 6695,
      "Ġinvestigate": 6696,
      "Ġdistances": 6697,
      "\"]": 6698,
      "day": 6699,
      "##bi": 6700,
      "ĠGal": 6701,
      "##cks": 6702,
      "equation": 6703,
      "##SO": 6704,
      "Take": 6705,
      "##å¤": 6706,
      "tra": 6707,
      "Ġinduced": 6708,
      "Ġreply": 6709,
      "Ġtells": 6710,
      "##ictionary": 6711,
      "Ġsurv": 6712,
      "opt": 6713,
      "Ġturb": 6714,
      "Current": 6715,
      "Chen": 6716,
      "##atell": 6717,
      "Ġconjug": 6718,
      "##allenge": 6719,
      "##ems": 6720,
      "##PA": 6721,
      "##ening": 6722,
      "ĠUni": 6723,
      "##ields": 6724,
      "##{{\\": 6725,
      "Ġdrug": 6726,
      "poly": 6727,
      "Ġreprodu": 6728,
      "ĠSeries": 6729,
      "Ġgene": 6730,
      "##rupt": 6731,
      "##ounded": 6732,
      "##eness": 6733,
      "##unt": 6734,
      "##sf": 6735,
      "Ġelectrical": 6736,
      "link": 6737,
      "##heses": 6738,
      "##ptimization": 6739,
      "Ġequals": 6740,
      "process": 6741,
      "Ġlabor": 6742,
      "High": 6743,
      "##how": 6744,
      ".$$": 6745,
      "Ġperhaps": 6746,
      "Ġelectronic": 6747,
      "}$$,": 6748,
      "Ġassigned": 6749,
      "Ok": 6750,
      "train": 6751,
      "##color": 6752,
      "##olecular": 6753,
      "av": 6754,
      "}}^{": 6755,
      "Ġbuff": 6756,
      "Mat": 6757,
      "Ġsimplify": 6758,
      "ste": 6759,
      "Ġunderstood": 6760,
      "Ġdenote": 6761,
      "Select": 6762,
      "##iability": 6763,
      "Ġyields": 6764,
      "##umul": 6765,
      "Ġends": 6766,
      "tf": 6767,
      "##FS": 6768,
      "##îħ": 6769,
      "##oded": 6770,
      "##stream": 6771,
      "med": 6772,
      "##cd": 6773,
      "Ġneutral": 6774,
      "Ġ..": 6775,
      "textbf": 6776,
      "blue": 6777,
      "##osph": 6778,
      "Ġquery": 6779,
      "Ġhighlight": 6780,
      "##duction": 6781,
      "Ġshif": 6782,
      "Ġevaluated": 6783,
      "##ATION": 6784,
      "##»¿": 6785,
      "##icians": 6786,
      "##osure": 6787,
      "Ġions": 6788,
      "Ġelliptic": 6789,
      "Ġobserve": 6790,
      "Ġapparent": 6791,
      "Ġregarding": 6792,
      "Ġcomplement": 6793,
      "##lig": 6794,
      "Ġshared": 6795,
      "##asis": 6796,
      "ĠCalculator": 6797,
      "MR": 6798,
      "Ġgiving": 6799,
      "ĠâĨĴ": 6800,
      "Ġtransformations": 6801,
      "##anged": 6802,
      "base": 6803,
      "##pected": 6804,
      "zeta": 6805,
      "##equence": 6806,
      "Ġstated": 6807,
      "Ġwhe": 6808,
      "Na": 6809,
      "ĠDis": 6810,
      "object": 6811,
      "ĠGoogle": 6812,
      "Ġbasically": 6813,
      "Ġbits": 6814,
      "Ġextend": 6815,
      "Ġmedia": 6816,
      "png": 6817,
      "Ġorbital": 6818,
      "Hello": 6819,
      "Ġstory": 6820,
      "Ġinert": 6821,
      "âĭ": 6822,
      "ĠAN": 6823,
      "Ġexceed": 6824,
      "##minist": 6825,
      "Ġwidely": 6826,
      "ĠWh": 6827,
      "##bolic": 6828,
      "Ġaspects": 6829,
      "Ġlogical": 6830,
      "##active": 6831,
      "##anes": 6832,
      "Ġroll": 6833,
      "Ġacqu": 6834,
      "##anning": 6835,
      "Ġfailure": 6836,
      "ĠDef": 6837,
      "##ifications": 6838,
      "Ġcovered": 6839,
      "Ġindices": 6840,
      "define": 6841,
      "Ġmonitor": 6842,
      "Ġintegrals": 6843,
      "Ġmag": 6844,
      "Ġconditional": 6845,
      "##ections": 6846,
      "##file": 6847,
      "||": 6848,
      "Ġsomewhat": 6849,
      "Assume": 6850,
      "<<": 6851,
      "measure": 6852,
      "Ġordinary": 6853,
      "##çĶ": 6854,
      "Ġreferred": 6855,
      "Ġalone": 6856,
      "Ġbrief": 6857,
      "&=": 6858,
      "##itors": 6859,
      "ĠLinear": 6860,
      "ĠTime": 6861,
      "ĠOf": 6862,
      "Ġmasses": 6863,
      "Ġtransmission": 6864,
      "ĠAlgorithm": 6865,
      "##ua": 6866,
      "ĠType": 6867,
      "##elling": 6868,
      "grid": 6869,
      "Ġnearly": 6870,
      "Ġbring": 6871,
      "##ny": 6872,
      "Ġhal": 6873,
      "Ġapplies": 6874,
      "ĠNOT": 6875,
      "##ola": 6876,
      "$[": 6877,
      "Click": 6878,
      "Ġplant": 6879,
      "Ġweighted": 6880,
      "Hz": 6881,
      "pass": 6882,
      "State": 6883,
      "Ġlengths": 6884,
      "##ownload": 6885,
      "##heets": 6886,
      "##str": 6887,
      "Ġparticularly": 6888,
      "Ġmo": 6889,
      "Notice": 6890,
      "\":\"": 6891,
      "Ġmanner": 6892,
      "making": 6893,
      "Ġpurposes": 6894,
      "}^\\": 6895,
      "##%%%%": 6896,
      "##TER": 6897,
      "##nowledge": 6898,
      "Ġlove": 6899,
      "Ġmostly": 6900,
      "##itter": 6901,
      "##antic": 6902,
      "Ġ(-": 6903,
      "Ġparab": 6904,
      "##cy": 6905,
      "##uman": 6906,
      "font": 6907,
      "##onical": 6908,
      "##IF": 6909,
      "Ġbutton": 6910,
      "Ġprivate": 6911,
      "##$$\\": 6912,
      "##ricted": 6913,
      "consider": 6914,
      "split": 6915,
      "##aining": 6916,
      "less": 6917,
      "ÌĦ": 6918,
      "##oder": 6919,
      "Ġradical": 6920,
      "Ġuniversal": 6921,
      "##Ind": 6922,
      "Ġsupposed": 6923,
      "Mathematical": 6924,
      "Ġcloser": 6925,
      "##acob": 6926,
      "Ġalgebras": 6927,
      "##perty": 6928,
      "Ġgradu": 6929,
      "weight": 6930,
      "ĠProblems": 6931,
      "Aut": 6932,
      "##Ð¾": 6933,
      "Ġscales": 6934,
      "du": 6935,
      "ser": 6936,
      "ĠPr": 6937,
      "##cluded": 6938,
      "car": 6939,
      "\\,\\": 6940,
      "dist": 6941,
      "Ġempirical": 6942,
      "##CL": 6943,
      "Phi": 6944,
      "##essor": 6945,
      "##elian": 6946,
      "range": 6947,
      "##udos": 6948,
      "anonymous": 6949,
      "System": 6950,
      "ĠLie": 6951,
      "Default": 6952,
      "}/": 6953,
      "Ġfinally": 6954,
      "Ġreceive": 6955,
      "Ġtrac": 6956,
      "Ġstrategies": 6957,
      "vert": 6958,
      "black": 6959,
      "IEEE": 6960,
      "Inf": 6961,
      "Ġperspective": 6962,
      "##bal": 6963,
      "Ġdepending": 6964,
      "ĠAND": 6965,
      "Ġgalaxies": 6966,
      "Ġratios": 6967,
      "Ġwhatever": 6968,
      "Ġinterpol": 6969,
      "##icrosoft": 6970,
      "Ġprices": 6971,
      "##erge": 6972,
      "Ġviews": 6973,
      "Ġwouldn": 6974,
      "DOI": 6975,
      "##max": 6976,
      "before": 6977,
      "Cor": 6978,
      "##abet": 6979,
      "\\:": 6980,
      "##oses": 6981,
      "##actic": 6982,
      "##taff": 6983,
      "Ġexplore": 6984,
      "##imet": 6985,
      "Disc": 6986,
      "Ġfigures": 6987,
      "otherwise": 6988,
      "Ġreplaced": 6989,
      "File": 6990,
      "Oh": 6991,
      "Ġcollected": 6992,
      "##Ã³": 6993,
      "Ġiron": 6994,
      "Ġhit": 6995,
      "Ġnormally": 6996,
      "@ąĔ": 6997,
      "Ġ>>": 6998,
      "##fol": 6999,
      "ĠMulti": 7000,
      "ĠConference": 7001,
      "shape": 7002,
      "Ġaver": 7003,
      "##arest": 7004,
      "Ġdiffer": 7005,
      "Ġdependence": 7006,
      "Ġqual": 7007,
      "typ": 7008,
      "people": 7009,
      "##ada": 7010,
      "write": 7011,
      "##icense": 7012,
      "Ġlowest": 7013,
      "documentclass": 7014,
      "cases": 7015,
      "Ġamb": 7016,
      "ĠTechnology": 7017,
      "Ġlaser": 7018,
      "Ġchoices": 7019,
      "ĠBayesian": 7020,
      "Ġmixture": 7021,
      "txt": 7022,
      "Ġmovement": 7023,
      "##tion": 7024,
      "Ġtab": 7025,
      "Ġbank": 7026,
      "##standing": 7027,
      "##attern": 7028,
      "Ġoutputs": 7029,
      "Ġmodules": 7030,
      "Ġchlor": 7031,
      "Ġfreedom": 7032,
      "##pg": 7033,
      "Ġinference": 7034,
      "ĠNa": 7035,
      "arXiv": 7036,
      "Ġutility": 7037,
      "##eces": 7038,
      "Ġpush": 7039,
      "She": 7040,
      "Ġlinked": 7041,
      "##inar": 7042,
      "##ato": 7043,
      "Ġrare": 7044,
      "Ġfractional": 7045,
      "ĠUnited": 7046,
      "answer": 7047,
      "spe": 7048,
      "Run": 7049,
      "##ony": 7050,
      "ĠĠĠĠĠĠĠĠĠĠĠ": 7051,
      "##ii": 7052,
      "Ġer": 7053,
      "Ġhundred": 7054,
      "kappa": 7055,
      "Ġneur": 7056,
      "Ġheter": 7057,
      "ĠAct": 7058,
      "##uality": 7059,
      "##AA": 7060,
      "##æĸ": 7061,
      "Ġextent": 7062,
      "many": 7063,
      "##(Ă": 7064,
      "Ġ=>": 7065,
      "##iced": 7066,
      "Ġfairly": 7067,
      "Ġvisible": 7068,
      "Ġclusters": 7069,
      "Ġaggreg": 7070,
      "example": 7071,
      "Ġrew": 7072,
      "Ġmeasuring": 7073,
      "Continuous": 7074,
      "Option": 7075,
      "Ġcarried": 7076,
      "Ġtold": 7077,
      "Ġestablished": 7078,
      "Ġsubsc": 7079,
      "poss": 7080,
      "âģ": 7081,
      "##iences": 7082,
      "Ġusage": 7083,
      "Ġscores": 7084,
      "Ġincorrect": 7085,
      "##ometer": 7086,
      "Ġdetected": 7087,
      "sw": 7088,
      "_________________": 7089,
      "Lambda": 7090,
      "Ġhttps": 7091,
      "frame": 7092,
      "##otion": 7093,
      "##ani": 7094,
      "Ġcong": 7095,
      "##ham": 7096,
      "Ġaware": 7097,
      "bigg": 7098,
      "indic": 7099,
      "ĠVol": 7100,
      "Ġannual": 7101,
      "Published": 7102,
      "Ġ**": 7103,
      "Ġlect": 7104,
      "could": 7105,
      "##ental": 7106,
      "##îħĶ": 7107,
      "note": 7108,
      "ĠRE": 7109,
      "Article": 7110,
      "ĠAB": 7111,
      "():": 7112,
      "ĠJohn": 7113,
      "Ġfolder": 7114,
      "Ġexception": 7115,
      "##PP": 7116,
      "either": 7117,
      "##ician": 7118,
      "AC": 7119,
      "Look": 7120,
      "ĠEm": 7121,
      "##}{\\": 7122,
      "Ġdip": 7123,
      "units": 7124,
      "##((((": 7125,
      "Ġcancer": 7126,
      "Ġkeys": 7127,
      "Ġdiscovered": 7128,
      "Ġguide": 7129,
      "ĠCent": 7130,
      "Ġconjecture": 7131,
      "ĠSm": 7132,
      "Ġpubl": 7133,
      "Ġsurround": 7134,
      "##ishes": 7135,
      "Ġoffic": 7136,
      "Ġconclude": 7137,
      "Ġblood": 7138,
      "Ġestimator": 7139,
      "##istor": 7140,
      "##icity": 7141,
      "##oz": 7142,
      "ĠAg": 7143,
      "##igu": 7144,
      "wave": 7145,
      "Ġmedian": 7146,
      "Ġtraject": 7147,
      "Ġpolit": 7148,
      "##ster": 7149,
      "Point": 7150,
      "Ġfriction": 7151,
      "Ġfavor": 7152,
      "Ġparagraph": 7153,
      "Ġplas": 7154,
      "Ġheavy": 7155,
      "Ġcharged": 7156,
      "format": 7157,
      "Mc": 7158,
      "ĠPoisson": 7159,
      "##iate": 7160,
      "Ġrandomly": 7161,
      "direct": 7162,
      "Ġproceed": 7163,
      "cc": 7164,
      "Ġcylinder": 7165,
      "Ġgauge": 7166,
      "##ritten": 7167,
      "height": 7168,
      "Ġthous": 7169,
      "##ogether": 7170,
      "({\\": 7171,
      "Indeed": 7172,
      "##ellar": 7173,
      "Ġlocally": 7174,
      "##ades": 7175,
      "Ġmor": 7176,
      "##vention": 7177,
      "Ġserious": 7178,
      "Ġindicated": 7179,
      "Ġlabels": 7180,
      "NCERT": 7181,
      "Ġsafe": 7182,
      "Ġanti": 7183,
      "Ġfuel": 7184,
      "##vere": 7185,
      "Ġdecided": 7186,
      "Ġisot": 7187,
      "Ġsensor": 7188,
      "Ġoil": 7189,
      "##urt": 7190,
      "##RC": 7191,
      "correspond": 7192,
      "ĠComputer": 7193,
      "##plus": 7194,
      "Ġcentre": 7195,
      "##plicity": 7196,
      "##eld": 7197,
      "Ġattached": 7198,
      "Ġsubstant": 7199,
      "Ġcovariance": 7200,
      "ĠAm": 7201,
      "Ġdamage": 7202,
      "Go": 7203,
      "Ġcriteria": 7204,
      "ĠFr": 7205,
      "]\\": 7206,
      "Ġpip": 7207,
      "Ġrespectively": 7208,
      "%)": 7209,
      "##ercises": 7210,
      "negative": 7211,
      "Ġsimplest": 7212,
      "Ġtou": 7213,
      "Ġpurch": 7214,
      "Ġindustry": 7215,
      "eps": 7216,
      "op": 7217,
      "##lt": 7218,
      "##ificial": 7219,
      "##ilateral": 7220,
      "##loor": 7221,
      "##ipse": 7222,
      "Ġdrawing": 7223,
      "NO": 7224,
      "bob": 7225,
      "Ġdocuments": 7226,
      "##ifiers": 7227,
      "Ġintern": 7228,
      "Commun": 7229,
      "mark": 7230,
      "##########": 7231,
      "Ġpowers": 7232,
      "##iral": 7233,
      "Ġplate": 7234,
      "ĠWorld": 7235,
      "Section": 7236,
      "+(": 7237,
      "sep": 7238,
      "due": 7239,
      "Ġconclusion": 7240,
      "Ġhuge": 7241,
      "$${\\": 7242,
      "##eff": 7243,
      "Ġsuppose": 7244,
      "Ġstim": 7245,
      "Ġchannels": 7246,
      "effect": 7247,
      "##uan": 7248,
      "Program": 7249,
      "Ġimplicit": 7250,
      "Ann": 7251,
      "Ġminor": 7252,
      "Ġcontributions": 7253,
      "##å®": 7254,
      "Ġcloud": 7255,
      "##rogen": 7256,
      "Ġdeform": 7257,
      "February": 7258,
      "Ġassuming": 7259,
      "Ġtheorems": 7260,
      "Ġhybrid": 7261,
      ".\\": 7262,
      "Ġconstit": 7263,
      "specific": 7264,
      "Ġvirtual": 7265,
      "Ġmessages": 7266,
      "Enter": 7267,
      "##ools": 7268,
      "represent": 7269,
      "##mar": 7270,
      "##(Ă(Ă": 7271,
      "Av": 7272,
      "Ġdense": 7273,
      "ĠOut": 7274,
      "Ġthroughout": 7275,
      "Dan": 7276,
      "##ees": 7277,
      "Before": 7278,
      "SI": 7279,
      "##SBN": 7280,
      "element": 7281,
      "ĠMin": 7282,
      "KB": 7283,
      "##ois": 7284,
      "ĠLag": 7285,
      "Ġreasoning": 7286,
      "Ġthermod": 7287,
      "Bi": 7288,
      "Â±": 7289,
      "Ġintended": 7290,
      "##TL": 7291,
      "Ġdil": 7292,
      "ï¿½ï¿½": 7293,
      "Ġentirely": 7294,
      "}|": 7295,
      "##asc": 7296,
      "Ġcentury": 7297,
      "Ġeducation": 7298,
      "Comb": 7299,
      "##âĸĪ": 7300,
      "##osis": 7301,
      "##îħĶîħĶ": 7302,
      "Ġcompat": 7303,
      "Code": 7304,
      "wiki": 7305,
      "##ativ": 7306,
      "Ġscaling": 7307,
      "##ambridge": 7308,
      "##artin": 7309,
      "##ä½": 7310,
      "Ġcombinations": 7311,
      "Ġdecreases": 7312,
      "##section": 7313,
      "Ġdisplayed": 7314,
      "##cho": 7315,
      "Ġdefines": 7316,
      "##Ð°": 7317,
      "##oman": 7318,
      "##elcome": 7319,
      "##cellent": 7320,
      "$|": 7321,
      "Ġsubstitution": 7322,
      "Ġatmosphere": 7323,
      "Mean": 7324,
      "ĠÂ°": 7325,
      "ft": 7326,
      "Ġinvestment": 7327,
      "##ullet": 7328,
      "ĠAD": 7329,
      "ĠEuclidean": 7330,
      "âŁ": 7331,
      "ĠBi": 7332,
      "Ġque": 7333,
      "Ġreverse": 7334,
      "Ġanalyze": 7335,
      "cre": 7336,
      "##apse": 7337,
      "Ġschemes": 7338,
      "##MT": 7339,
      "##[]": 7340,
      "Ġsector": 7341,
      "Ġanalyses": 7342,
      "##Script": 7343,
      "##aterials": 7344,
      "head": 7345,
      "ĠCH": 7346,
      "ĠWikipedia": 7347,
      "Hu": 7348,
      "well": 7349,
      "about": 7350,
      "Soc": 7351,
      "Ġvariations": 7352,
      "factor": 7353,
      "Zhang": 7354,
      "ĠTeX": 7355,
      "SO": 7356,
      "$=": 7357,
      "}}}$": 7358,
      "ĠIf": 7359,
      "Ġinstrument": 7360,
      "Ġdefining": 7361,
      "##ique": 7362,
      "##SI": 7363,
      "Ant": 7364,
      "iter": 7365,
      "ĠAPI": 7366,
      "Ġelectromagnetic": 7367,
      "Ġdisplacement": 7368,
      "ĠRad": 7369,
      "##atics": 7370,
      "Ġ}{": 7371,
      "Ġsummar": 7372,
      "Public": 7373,
      "##uts": 7374,
      "##ifference": 7375,
      "##odies": 7376,
      "gives": 7377,
      "Ġelementary": 7378,
      "---": 7379,
      "##riting": 7380,
      "##ropic": 7381,
      "Ġdomains": 7382,
      "Ġcharges": 7383,
      "Ġtraditional": 7384,
      "##essage": 7385,
      "Ġmill": 7386,
      "Ġ}$": 7387,
      "##uple": 7388,
      "Ġ$(": 7389,
      "ĠSolution": 7390,
      "Ġproofs": 7391,
      "Ġsimpler": 7392,
      "Ġec": 7393,
      "Ġrender": 7394,
      "Ġdetermin": 7395,
      "ĠMechan": 7396,
      "Ġpassing": 7397,
      "##reek": 7398,
      "ĠHamiltonian": 7399,
      "Upd": 7400,
      "##rant": 7401,
      "Ġgeneric": 7402,
      "Ġeigenve": 7403,
      "page": 7404,
      "ĠNon": 7405,
      "Ġtrace": 7406,
      "ĠBo": 7407,
      "##othing": 7408,
      "##annel": 7409,
      "##ircle": 7410,
      "along": 7411,
      "##ops": 7412,
      "than": 7413,
      "Ġtreated": 7414,
      "Ġmar": 7415,
      "Ġconsumption": 7416,
      "algebra": 7417,
      "Ġcontrad": 7418,
      "Ġyoung": 7419,
      "Ġarrange": 7420,
      "Ġwonder": 7421,
      "##okes": 7422,
      "Ġrepresenting": 7423,
      "Ġquotient": 7424,
      "##æĺ": 7425,
      "Ġhardware": 7426,
      "Ġthickness": 7427,
      "Î·": 7428,
      "##ithub": 7429,
      "##hal": 7430,
      "Ġfib": 7431,
      "##emble": 7432,
      "Ġsubgroup": 7433,
      "##ademic": 7434,
      "##rivial": 7435,
      "Ġhierarch": 7436,
      "Ġdev": 7437,
      "##OV": 7438,
      "##elesc": 7439,
      "whose": 7440,
      "Ġreality": 7441,
      "Ġopinion": 7442,
      "ĠPlan": 7443,
      "Ġholes": 7444,
      "Ġeigenvalue": 7445,
      "ĠMethod": 7446,
      "##ften": 7447,
      "##ribe": 7448,
      "Ġtranslation": 7449,
      "Ġcubic": 7450,
      "##rich": 7451,
      "##è¯": 7452,
      "##ctic": 7453,
      "Ġpanel": 7454,
      "Ġsituations": 7455,
      "Ġbrack": 7456,
      "Ġhidden": 7457,
      "Ġtextbook": 7458,
      "##ude": 7459,
      "##rick": 7460,
      "Ġsupports": 7461,
      "TRUE": 7462,
      "ĠHTML": 7463,
      "their": 7464,
      "##ientific": 7465,
      "##sole": 7466,
      "Ġmechanisms": 7467,
      "ident": 7468,
      "Ġlate": 7469,
      "ĠAre": 7470,
      "Ġheart": 7471,
      "ĠApplied": 7472,
      "Ġactivities": 7473,
      "##inical": 7474,
      "##iggs": 7475,
      "##ULL": 7476,
      "Ġinvent": 7477,
      "##erion": 7478,
      "};": 7479,
      "Ġincorpor": 7480,
      "Ġmeta": 7481,
      "Draw": 7482,
      "Ġinit": 7483,
      "##nected": 7484,
      "ĠPR": 7485,
      "body": 7486,
      "));": 7487,
      "##EX": 7488,
      "âĢĭ": 7489,
      "Ġouter": 7490,
      "##åŃ¦": 7491,
      "##nect": 7492,
      "ĠSN": 7493,
      "Ġcommit": 7494,
      "Ġglass": 7495,
      "Ġrecip": 7496,
      "##ander": 7497,
      "##cial": 7498,
      "##den": 7499,
      "Ġlocations": 7500,
      "degree": 7501,
      "mbox": 7502,
      "##onometric": 7503,
      "ĠWeb": 7504,
      "Ġdatasets": 7505,
      "##forward": 7506,
      "ĠValue": 7507,
      "Ġwants": 7508,
      "##rong": 7509,
      "Ġstay": 7510,
      "Ġanalytic": 7511,
      "##ama": 7512,
      "prob": 7513,
      "Ġcru": 7514,
      "Staff": 7515,
      "Ġoccup": 7516,
      "Ġconvolution": 7517,
      "mg": 7518,
      "Ġintersect": 7519,
      "##oto": 7520,
      "Ġjump": 7521,
      "related": 7522,
      "Ġ${": 7523,
      "Ġtrade": 7524,
      "Ġ&&": 7525,
      "Ġ:=": 7526,
      "null": 7527,
      "##ository": 7528,
      "Ġhomogeneous": 7529,
      "Ġorganic": 7530,
      "##com": 7531,
      "##function": 7532,
      "Ġkinds": 7533,
      "Again": 7534,
      "##åĨ": 7535,
      "##agonal": 7536,
      "Ġvacuum": 7537,
      "Fl": 7538,
      "Ġexcess": 7539,
      ")$$.": 7540,
      "Ġinstructions": 7541,
      "##obert": 7542,
      "determ": 7543,
      "âĢĻ,": 7544,
      "##iveness": 7545,
      "Ġspherical": 7546,
      "Ġrelationships": 7547,
      "Ġmaximal": 7548,
      "figure": 7549,
      "##ilinear": 7550,
      "ĠDet": 7551,
      "Ġcollision": 7552,
      "Ġgate": 7553,
      "Ġfriend": 7554,
      "##istence": 7555,
      "##igned": 7556,
      "Adv": 7557,
      "##xy": 7558,
      "##raz": 7559,
      "##Ðµ": 7560,
      "Ġpossibly": 7561,
      "Ġintegrated": 7562,
      "ĠExample": 7563,
      "##rand": 7564,
      "Ġnone": 7565,
      "Ġled": 7566,
      "##rating": 7567,
      "Ġmanual": 7568,
      "+=": 7569,
      "Ġdecide": 7570,
      "meaning": 7571,
      "questions": 7572,
      "Cal": 7573,
      "##kt": 7574,
      "Ġpy": 7575,
      "Ġhash": 7576,
      "Ġresponses": 7577,
      "ĠPoint": 7578,
      "##artesian": 7579,
      "Ġhistor": 7580,
      "art": 7581,
      "Ġstationary": 7582,
      "##ummary": 7583,
      "##UN": 7584,
      "##atin": 7585,
      "Ġsoil": 7586,
      "##code": 7587,
      "##hetic": 7588,
      "fill": 7589,
      "Ġconfused": 7590,
      "##ya": 7591,
      "Ġtoward": 7592,
      "Long": 7593,
      "##ECT": 7594,
      "Ġdiagrams": 7595,
      "ĠCD": 7596,
      "##arn": 7597,
      "Ġcompre": 7598,
      "Ġarrays": 7599,
      "Ġspecifically": 7600,
      "Ġcamera": 7601,
      "{.": 7602,
      "Opt": 7603,
      "Ret": 7604,
      "Ġconcrete": 7605,
      "low": 7606,
      "Ġeth": 7607,
      "Ġintermediate": 7608,
      ":)": 7609,
      "Make": 7610,
      "Ġpython": 7611,
      "During": 7612,
      "\">": 7613,
      "EX": 7614,
      ")}\\": 7615,
      "Ġlooked": 7616,
      "Ġperfectly": 7617,
      "##List": 7618,
      "##,\\,\\": 7619,
      "##cs": 7620,
      "Ġadjacent": 7621,
      "rot": 7622,
      "##itionally": 7623,
      "##vin": 7624,
      "Ġeventually": 7625,
      "Ġearn": 7626,
      "Ġri": 7627,
      "##]:": 7628,
      "Ġseparated": 7629,
      "Exercise": 7630,
      "ĠCommun": 7631,
      "Ġbur": 7632,
      "Ġinvolve": 7633,
      "##ipped": 7634,
      "ĠCenter": 7635,
      "Ġconfirm": 7636,
      "##âĸĪâĸĪ": 7637,
      "$?": 7638,
      "cy": 7639,
      "Ġdiagn": 7640,
      ")))": 7641,
      "Ġsums": 7642,
      "Ġell": 7643,
      "Ġimaging": 7644,
      "##la": 7645,
      "##orrow": 7646,
      "ĠMet": 7647,
      "Ġspring": 7648,
      "init": 7649,
      "Ġmetals": 7650,
      "##æķ": 7651,
      "!)": 7652,
      "Ġchemistry": 7653,
      "Ġconverted": 7654,
      "Alex": 7655,
      "Warning": 7656,
      "##rams": 7657,
      "Determine": 7658,
      "report": 7659,
      "Ġinsert": 7660,
      "##everal": 7661,
      "##Index": 7662,
      "##ultiply": 7663,
      "##orrelation": 7664,
      "iii": 7665,
      "try": 7666,
      "Ġbattery": 7667,
      "Ġinfo": 7668,
      "Ġsatisfies": 7669,
      "Ġbenefit": 7670,
      "Ġposterior": 7671,
      "cup": 7672,
      "ds": 7673,
      "##$(": 7674,
      "Ġagreement": 7675,
      "##RT": 7676,
      "Kudos": 7677,
      "click": 7678,
      "##oidal": 7679,
      "ĠTop": 7680,
      "##force": 7681,
      "len": 7682,
      "Ġcontrolled": 7683,
      "Ġtemplate": 7684,
      "Ġstudying": 7685,
      "Ġenable": 7686,
      "desc": 7687,
      "Ġcoin": 7688,
      "ĠGeneral": 7689,
      "Ġasymptotic": 7690,
      "Ġwasn": 7691,
      "Ġenergies": 7692,
      "Ġrestrict": 7693,
      "Ġattribute": 7694,
      "ĠHelp": 7695,
      "['": 7696,
      "International": 7697,
      "BC": 7698,
      "Ber": 7699,
      "Ġinstit": 7700,
      "Ġmapp": 7701,
      "Ġcircles": 7702,
      "##eps": 7703,
      "Ġpoll": 7704,
      "Ġaffected": 7705,
      ",...,": 7706,
      "Ġmachines": 7707,
      "Ġwomen": 7708,
      "##Ã¨": 7709,
      "##formance": 7710,
      "Ġharmonic": 7711,
      "ISBN": 7712,
      "author": 7713,
      "according": 7714,
      "ED": 7715,
      "Ġterminal": 7716,
      "problem": 7717,
      "##list": 7718,
      "##Ar": 7719,
      "last": 7720,
      "Ġcapture": 7721,
      "##;\\;\\": 7722,
      "Ġformulation": 7723,
      "score": 7724,
      "Ġpermutation": 7725,
      "gu": 7726,
      "Ġtiss": 7727,
      "##anger": 7728,
      "String": 7729,
      "Results": 7730,
      "Ġdedu": 7731,
      "Ġaccepted": 7732,
      "##ondon": 7733,
      "##ĩĴ": 7734,
      "##ked": 7735,
      "ĠGeometry": 7736,
      "##âĢĶâĢĶ": 7737,
      "##FC": 7738,
      "ĠAut": 7739,
      "Ġequality": 7740,
      "Val": 7741,
      "Ġmount": 7742,
      "ĠHigh": 7743,
      "##using": 7744,
      "Ġestablish": 7745,
      "Ġquasi": 7746,
      "ĠOper": 7747,
      "Ġcone": 7748,
      "##ensus": 7749,
      "##lections": 7750,
      "##oday": 7751,
      "##iated": 7752,
      "##rieved": 7753,
      "Ġpool": 7754,
      "##aturally": 7755,
      "dri": 7756,
      "Ġsto": 7757,
      "##ancing": 7758,
      "##col": 7759,
      "##Con": 7760,
      "Ġdemonstrated": 7761,
      "Ġnews": 7762,
      "ĠMarkov": 7763,
      "Ġcorrection": 7764,
      "##rins": 7765,
      "*(": 7766,
      "Ġdoll": 7767,
      "MA": 7768,
      "valued": 7769,
      "Ġcontents": 7770,
      "Ġlatest": 7771,
      "Ġverify": 7772,
      "ĠZh": 7773,
      "##rior": 7774,
      "##joint": 7775,
      "Ġsheet": 7776,
      "Ġgenes": 7777,
      "##rog": 7778,
      "Ġ<-": 7779,
      "##irth": 7780,
      "Ġnoted": 7781,
      "##igence": 7782,
      "ï¿½ï¿½ï¿½": 7783,
      "Ġinequalities": 7784,
      "##clusions": 7785,
      "Ġseparation": 7786,
      "lead": 7787,
      "##endix": 7788,
      "Ġlibraries": 7789,
      "Ġproviding": 7790,
      "mem": 7791,
      "ord": 7792,
      "##ALSE": 7793,
      "ĠArt": 7794,
      "Ġgamma": 7795,
      "Ġcollisions": 7796,
      "Ġsuccessful": 7797,
      "too": 7798,
      "und": 7799,
      "##ourses": 7800,
      "USA": 7801,
      "Ġmoder": 7802,
      "Ġreleased": 7803,
      "Ġpixel": 7804,
      "US": 7805,
      "Ġbrowser": 7806,
      "Ġassignment": 7807,
      "##iler": 7808,
      "Ġproton": 7809,
      "##sheet": 7810,
      "Ġadopt": 7811,
      "Ġneutron": 7812,
      "Ġfluct": 7813,
      "Ġimprovement": 7814,
      ".!": 7815,
      "Challenge": 7816,
      "mail": 7817,
      "##elocity": 7818,
      "##aid": 7819,
      "disc": 7820,
      "ĠEconom": 7821,
      "Ġshapes": 7822,
      "Ġdenoted": 7823,
      "Ġ\\;": 7824,
      "Ġconcentrations": 7825,
      "Description": 7826,
      "ĠWith": 7827,
      "##obobobob": 7828,
      "Quantum": 7829,
      "Ġmoved": 7830,
      "Ġfire": 7831,
      "Real": 7832,
      "Ġskills": 7833,
      "Ġbeta": 7834,
      "ĠCM": 7835,
      "##eady": 7836,
      "Michael": 7837,
      "ĠHilbert": 7838,
      "##imer": 7839,
      "Could": 7840,
      "Python": 7841,
      "row": 7842,
      "inv": 7843,
      "Ġmassive": 7844,
      "ĠMathematica": 7845,
      "##za": 7846,
      "##Ð¸": 7847,
      "Ġcredit": 7848,
      "##~~~~": 7849,
      "ĠSur": 7850,
      "##agon": 7851,
      "à¸": 7852,
      "Ġlies": 7853,
      "##SL": 7854,
      "select": 7855,
      "Ġsquared": 7856,
      "##posed": 7857,
      "Ġinduction": 7858,
      "##ita": 7859,
      "Ġcycles": 7860,
      "Â®": 7861,
      "##BS": 7862,
      "Unfortunately": 7863,
      "Ġpresentation": 7864,
      "ĠChina": 7865,
      "Ġplain": 7866,
      "##ymmetry": 7867,
      "ĠAst": 7868,
      "tikz": 7869,
      "Ġprepar": 7870,
      "##joy": 7871,
      "gen": 7872,
      "##hold": 7873,
      "##ulum": 7874,
      "Ġcomparing": 7875,
      "##utations": 7876,
      "Proceedings": 7877,
      "ĠArch": 7878,
      "##espite": 7879,
      "]=": 7880,
      "âī¥": 7881,
      "##ustral": 7882,
      "}\\,": 7883,
      "Ġanten": 7884,
      "##è®": 7885,
      "ĠEl": 7886,
      "Ġmonths": 7887,
      "Homework": 7888,
      "Ġnumerator": 7889,
      "ĠMac": 7890,
      "##oting": 7891,
      "##ponential": 7892,
      "##han": 7893,
      "Good": 7894,
      "Ġmainly": 7895,
      "Ġconvenient": 7896,
      "Ġmesh": 7897,
      "Ġtrust": 7898,
      "Ġbinomial": 7899,
      "##oir": 7900,
      "comb": 7901,
      "Ġlie": 7902,
      "##folio": 7903,
      "hfill": 7904,
      "Ġnor": 7905,
      "Ġcompanies": 7906,
      "[{": 7907,
      "look": 7908,
      "Followers": 7909,
      "[?": 7910,
      "##Pl": 7911,
      "Ġsimulated": 7912,
      "(*": 7913,
      "Ġneither": 7914,
      "subseteq": 7915,
      "Ġperiods": 7916,
      "predict": 7917,
      "{}": 7918,
      "used": 7919,
      "]$$": 7920,
      "Ġleaves": 7921,
      "Ġformer": 7922,
      "##rage": 7923,
      "Ġabsorption": 7924,
      "##oving": 7925,
      "SE": 7926,
      "Ġhint": 7927,
      "Ġparad": 7928,
      "Ġmirror": 7929,
      "Ġmanifolds": 7930,
      "ĠSP": 7931,
      "Ġcreates": 7932,
      "root": 7933,
      "##TM": 7934,
      "Ġpuzz": 7935,
      "ĠĠĠĠĠĠĠĠĠĠĠĠ": 7936,
      "##rian": 7937,
      "Ġreached": 7938,
      "##airs": 7939,
      "Ġimaginary": 7940,
      "##ara": 7941,
      "unit": 7942,
      "Text": 7943,
      "Ġcombine": 7944,
      "Department": 7945,
      "Ġkill": 7946,
      "script": 7947,
      ")!": 7948,
      "Ġneighbor": 7949,
      "Ġtrouble": 7950,
      "world": 7951,
      "##pi": 7952,
      "##...]": 7953,
      "})$$": 7954,
      "##served": 7955,
      "##åĲ": 7956,
      "Ġunion": 7957,
      "Ġconservation": 7958,
      "ca": 7959,
      "Ġcash": 7960,
      "Ġvariability": 7961,
      "Ġbenefits": 7962,
      "Ġsine": 7963,
      "Ġchrom": 7964,
      "ĠDC": 7965,
      "##RS": 7966,
      "##ought": 7967,
      "Ġimm": 7968,
      "##ä¸Ģ": 7969,
      "ĠCS": 7970,
      "Ġsignificance": 7971,
      "##avig": 7972,
      "Ġinvestigated": 7973,
      "Altern": 7974,
      "[-": 7975,
      "Sign": 7976,
      "tab": 7977,
      "ĠMATLAB": 7978,
      "Ġcook": 7979,
      "ĠDate": 7980,
      "##aling": 7981,
      "##ceived": 7982,
      "Ġmicrosc": 7983,
      "Ġpieces": 7984,
      "Ġpot": 7985,
      "Plot": 7986,
      "Ġparticipants": 7987,
      "ĠCode": 7988,
      "Ġbigger": 7989,
      "##mal": 7990,
      "##NG": 7991,
      "Ġtermin": 7992,
      "doc": 7993,
      "ĠGod": 7994,
      "library": 7995,
      "##uced": 7996,
      "Ġimagine": 7997,
      "block": 7998,
      "Ġanomal": 7999,
      "##ntil": 8000,
      "ĠExp": 8001,
      "coordin": 8002,
      "'$": 8003,
      "uni": 8004,
      "ĠSem": 8005,
      "##ç»": 8006,
      "ĠNot": 8007,
      "Ġconform": 8008,
      "Ġaxes": 8009,
      "##rÃ¶": 8010,
      "Ġcolors": 8011,
      "Nat": 8012,
      "Ġremainder": 8013,
      "Ġaw": 8014,
      "Ġeight": 8015,
      "Ġexport": 8016,
      "optional": 8017,
      "Ġsell": 8018,
      "Ident": 8019,
      "##IST": 8020,
      "##ously": 8021,
      "wide": 8022,
      "##TS": 8023,
      "##venue": 8024,
      "Ġattributes": 8025,
      "##ingly": 8026,
      "##velopment": 8027,
      "Ġturned": 8028,
      "dcds": 8029,
      "##clusive": 8030,
      "##HS": 8031,
      "Ġsea": 8032,
      "##ÃĹ": 8033,
      "Back": 8034,
      "Ġsubsets": 8035,
      "bits": 8036,
      "##Ch": 8037,
      "##ectors": 8038,
      "Ben": 8039,
      "##otype": 8040,
      "##atching": 8041,
      "Ġplayers": 8042,
      "Related": 8043,
      "Ġconnections": 8044,
      "Ġorientation": 8045,
      "##dinger": 8046,
      "Ġmic": 8047,
      "volume": 8048,
      "Random": 8049,
      "textrm": 8050,
      "GL": 8051,
      "Ġter": 8052,
      "correct": 8053,
      "Ġbinding": 8054,
      "Ġ\\{": 8055,
      "Ġrings": 8056,
      "Cre": 8057,
      "ĠGl": 8058,
      "loop": 8059,
      "complex": 8060,
      "Ġfitting": 8061,
      "ĠSearch": 8062,
      "Ġrefers": 8063,
      "Ġrectangular": 8064,
      "Ġreader": 8065,
      "##ko": 8066,
      "##Mod": 8067,
      "initial": 8068,
      "Ġsensitive": 8069,
      "Uni": 8070,
      "##igher": 8071,
      "ĠOP": 8072,
      "book": 8073,
      "##irus": 8074,
      "##atellite": 8075,
      "Ref": 8076,
      "Ġinterior": 8077,
      "Ġdefinitely": 8078,
      "Value": 8079,
      "##amily": 8080,
      "Perhaps": 8081,
      "scal": 8082,
      "Ġexecution": 8083,
      "Ġeffectively": 8084,
      "Ġspectrosc": 8085,
      "##ibli": 8086,
      "Ser": 8087,
      "db": 8088,
      "Ġheld": 8089,
      "Have": 8090,
      "latex": 8091,
      "Ġreduces": 8092,
      "##CS": 8093,
      "expl": 8094,
      "enc": 8095,
      "ĠAng": 8096,
      "##anned": 8097,
      "Ġbright": 8098,
      "##umes": 8099,
      "target": 8100,
      "Ġspac": 8101,
      "Ġflag": 8102,
      "ĠSw": 8103,
      "Ġabund": 8104,
      "##inking": 8105,
      "Ġresearchers": 8106,
      "Ġcold": 8107,
      "obj": 8108,
      "Ġnight": 8109,
      "##RR": 8110,
      "Ġrecorded": 8111,
      "Met": 8112,
      "Ġlots": 8113,
      "Ġphotons": 8114,
      "Area": 8115,
      "Ġarm": 8116,
      "ĠFound": 8117,
      "Ġassets": 8118,
      "Ġ{{": 8119,
      "ĠAnt": 8120,
      "Ġtail": 8121,
      "##viously": 8122,
      "depending": 8123,
      "Ġdaily": 8124,
      "maybe": 8125,
      "Ġportion": 8126,
      "Error": 8127,
      "Ġamounts": 8128,
      "Ġespecially": 8129,
      "Ġtit": 8130,
      "Date": 8131,
      "Ġspent": 8132,
      "Search": 8133,
      "##Ã¢": 8134,
      "Ġdescribing": 8135,
      "Ġexcellent": 8136,
      "again": 8137,
      "##................................": 8138,
      "ĠEdition": 8139,
      "Sorry": 8140,
      "Ġren": 8141,
      "Ġduration": 8142,
      ")}^{": 8143,
      "Rad": 8144,
      "##ipment": 8145,
      "Maths": 8146,
      "Ġknows": 8147,
      "month": 8148,
      ")),": 8149,
      "##hi": 8150,
      "ĠProject": 8151,
      "Ġcollabor": 8152,
      "Ġsubstance": 8153,
      "Ġcompiler": 8154,
      "Ag": 8155,
      "Ġversus": 8156,
      "##ained": 8157,
      "Ġclosely": 8158,
      "elect": 8159,
      "Ġalpha": 8160,
      "Ġadvance": 8161,
      "Ġsimultaneously": 8162,
      "##levant": 8163,
      "Ġunless": 8164,
      "Ġstrictly": 8165,
      "##erved": 8166,
      "Ġagents": 8167,
      "##lict": 8168,
      "Ġdescript": 8169,
      "home": 8170,
      "##roxim": 8171,
      "Ġscientists": 8172,
      "ÏĪ": 8173,
      "ĠMy": 8174,
      "##icip": 8175,
      "Ġthanks": 8176,
      "Ġcat": 8177,
      "Ġintell": 8178,
      "conver": 8179,
      "##vironments": 8180,
      "Ġdynamical": 8181,
      "Ġhyperbolic": 8182,
      "##aught": 8183,
      "Ġlinearly": 8184,
      "##eak": 8185,
      "Ġrain": 8186,
      "product": 8187,
      "Ġsubjects": 8188,
      "##BA": 8189,
      "##riz": 8190,
      "Ġ=\\": 8191
    },
    "merges": [
      [
        "Ġ",
        "##t"
      ],
      [
        "##h",
        "##e"
      ],
      [
        "##i",
        "##n"
      ],
      [
        "Ġ",
        "##a"
      ],
      [
        "##o",
        "##n"
      ],
      [
        "##r",
        "##e"
      ],
      [
        "##a",
        "##t"
      ],
      [
        "Ġt",
        "##he"
      ],
      [
        "##e",
        "##r"
      ],
      [
        "Ġ",
        "##s"
      ],
      [
        "Ġ",
        "##o"
      ],
      [
        "##e",
        "##n"
      ],
      [
        "##i",
        "##s"
      ],
      [
        "Ġ",
        "##c"
      ],
      [
        "##o",
        "##r"
      ],
      [
        "##a",
        "##l"
      ],
      [
        "##e",
        "##s"
      ],
      [
        "##i",
        "##t"
      ],
      [
        "##i",
        "##on"
      ],
      [
        "##a",
        "##n"
      ],
      [
        "Ġ",
        "##f"
      ],
      [
        "Ġ",
        "##p"
      ],
      [
        "Ġo",
        "##f"
      ],
      [
        "Ġ",
        "##w"
      ],
      [
        "##e",
        "##d"
      ],
      [
        "##a",
        "##r"
      ],
      [
        "##n",
        "##d"
      ],
      [
        "##i",
        "##c"
      ],
      [
        "##in",
        "##g"
      ],
      [
        "##l",
        "##e"
      ],
      [
        "Ġ",
        "##b"
      ],
      [
        "Ġ",
        "##m"
      ],
      [
        "Ġ",
        "##in"
      ],
      [
        "Ġ",
        "##d"
      ],
      [
        "##o",
        "##u"
      ],
      [
        "##c",
        "##t"
      ],
      [
        "Ġt",
        "##o"
      ],
      [
        "##r",
        "##o"
      ],
      [
        "Ċ",
        "##Ċ"
      ],
      [
        "Ġt",
        "##h"
      ],
      [
        "##a",
        "##s"
      ],
      [
        "##e",
        "##t"
      ],
      [
        "Ġ",
        "##e"
      ],
      [
        "##en",
        "##t"
      ],
      [
        "##o",
        "##m"
      ],
      [
        "Ġ",
        "##is"
      ],
      [
        "Ġ",
        "##n"
      ],
      [
        "##s",
        "##t"
      ],
      [
        "##v",
        "##e"
      ],
      [
        "Ġa",
        "##nd"
      ],
      [
        "##at",
        "##ion"
      ],
      [
        "Ġ",
        "##re"
      ],
      [
        "##i",
        "##m"
      ],
      [
        "##u",
        "##t"
      ],
      [
        "##l",
        "##y"
      ],
      [
        "##r",
        "##a"
      ],
      [
        "Ġ",
        "##l"
      ],
      [
        "##o",
        "##t"
      ],
      [
        "##l",
        "##l"
      ],
      [
        "Ġ",
        "##h"
      ],
      [
        "##i",
        "##g"
      ],
      [
        "##c",
        "##e"
      ],
      [
        "##o",
        "##w"
      ],
      [
        "Ġ",
        "##g"
      ],
      [
        "##o",
        "##l"
      ],
      [
        "##u",
        "##s"
      ],
      [
        "Ġf",
        "##or"
      ],
      [
        "##Ġ",
        "##Ġ"
      ],
      [
        "##u",
        "##l"
      ],
      [
        "Ġb",
        "##e"
      ],
      [
        "â",
        "##Ģ"
      ],
      [
        "##i",
        "##d"
      ],
      [
        "##a",
        "##m"
      ],
      [
        "##u",
        "##m"
      ],
      [
        "Ġth",
        "##at"
      ],
      [
        "Ġ",
        "##on"
      ],
      [
        "##c",
        "##h"
      ],
      [
        "##q",
        "##u"
      ],
      [
        "##v",
        "##er"
      ],
      [
        "##it",
        "##h"
      ],
      [
        "##o",
        "##d"
      ],
      [
        "Ġa",
        "##n"
      ],
      [
        "T",
        "##he"
      ],
      [
        "##u",
        "##r"
      ],
      [
        "Ġs",
        "##t"
      ],
      [
        "##i",
        "##f"
      ],
      [
        "Ġc",
        "##on"
      ],
      [
        "##i",
        "##l"
      ],
      [
        "Ġp",
        "##ro"
      ],
      [
        "##e",
        "##l"
      ],
      [
        "a",
        "##nd"
      ],
      [
        "##o",
        "##s"
      ],
      [
        "##u",
        "##n"
      ],
      [
        "Ġ",
        "##y"
      ],
      [
        "##a",
        "##y"
      ],
      [
        "##at",
        "##e"
      ],
      [
        "##g",
        "##e"
      ],
      [
        "##ct",
        "##ion"
      ],
      [
        "##r",
        "##i"
      ],
      [
        "Ġw",
        "##ith"
      ],
      [
        "##a",
        "##b"
      ],
      [
        "Ġe",
        "##x"
      ],
      [
        "Ġa",
        "##s"
      ],
      [
        "Ġa",
        "##re"
      ],
      [
        "Ġ",
        "##it"
      ],
      [
        "##t",
        "##er"
      ],
      [
        "##p",
        "##l"
      ],
      [
        "t",
        "##he"
      ],
      [
        "Ġ",
        "##v"
      ],
      [
        "##i",
        "##r"
      ],
      [
        "Ġ",
        "##\\"
      ],
      [
        "Ġ",
        "##S"
      ],
      [
        "Ġy",
        "##ou"
      ],
      [
        "##p",
        "##e"
      ],
      [
        "##is",
        "##t"
      ],
      [
        "##e",
        "##m"
      ],
      [
        "##u",
        "##re"
      ],
      [
        "Ġ",
        "##us"
      ],
      [
        "##it",
        "##y"
      ],
      [
        "##ig",
        "##h"
      ],
      [
        "##n",
        "##t"
      ],
      [
        "Ġc",
        "##om"
      ],
      [
        "##a",
        "##d"
      ],
      [
        "Ġ",
        "##I"
      ],
      [
        "##e",
        "##re"
      ],
      [
        "##es",
        "##t"
      ],
      [
        "##s",
        "##e"
      ],
      [
        "##he",
        "##r"
      ],
      [
        "##.",
        "##."
      ],
      [
        "Ġ",
        "##C"
      ],
      [
        "Ġ",
        "##("
      ],
      [
        "##o",
        "##re"
      ],
      [
        "##e",
        "##f"
      ],
      [
        "##i",
        "##ve"
      ],
      [
        "##p",
        "##le"
      ],
      [
        "Ġb",
        "##y"
      ],
      [
        "##i",
        "##v"
      ],
      [
        "Ġ",
        "##r"
      ],
      [
        "Ġth",
        "##is"
      ],
      [
        "Ġ",
        "##A"
      ],
      [
        "Ġc",
        "##an"
      ],
      [
        "##er",
        "##s"
      ],
      [
        "$",
        "##$"
      ],
      [
        "##an",
        "##t"
      ],
      [
        "##igh",
        "##t"
      ],
      [
        "##m",
        "##ent"
      ],
      [
        "##a",
        "##c"
      ],
      [
        "##p",
        "##t"
      ],
      [
        "##ro",
        "##m"
      ],
      [
        "##in",
        "##e"
      ],
      [
        "##re",
        "##s"
      ],
      [
        "##a",
        "##ve"
      ],
      [
        "Ġ",
        "##P"
      ],
      [
        "Ġs",
        "##e"
      ],
      [
        "Ġ",
        "##M"
      ],
      [
        "##ic",
        "##al"
      ],
      [
        "##p",
        "##er"
      ],
      [
        "##i",
        "##al"
      ],
      [
        "Ġo",
        "##r"
      ],
      [
        "##i",
        "##ll"
      ],
      [
        "Ġa",
        "##l"
      ],
      [
        "Ġa",
        "##t"
      ],
      [
        "Ġn",
        "##ot"
      ],
      [
        "##es",
        "##s"
      ],
      [
        "##k",
        "##e"
      ],
      [
        "##ar",
        "##t"
      ],
      [
        "##an",
        "##d"
      ],
      [
        "##a",
        "##in"
      ],
      [
        "##l",
        "##d"
      ],
      [
        "Ġw",
        "##e"
      ],
      [
        "##ĠĠ",
        "##ĠĠ"
      ],
      [
        "##o",
        "##c"
      ],
      [
        "Ġw",
        "##h"
      ],
      [
        "i",
        "##n"
      ],
      [
        "##e",
        "##ct"
      ],
      [
        "Ġs",
        "##u"
      ],
      [
        "##at",
        "##h"
      ],
      [
        "##i",
        "##es"
      ],
      [
        "Ġn",
        "##e"
      ],
      [
        "##p",
        "##p"
      ],
      [
        "##ic",
        "##h"
      ],
      [
        "Ġ",
        "##T"
      ],
      [
        "##b",
        "##le"
      ],
      [
        "##o",
        "##g"
      ],
      [
        "Ġf",
        "##rom"
      ],
      [
        "##i",
        "##z"
      ],
      [
        "âĢ",
        "##¢"
      ],
      [
        "Ġh",
        "##ave"
      ],
      [
        "Ġd",
        "##e"
      ],
      [
        "##a",
        "##g"
      ],
      [
        "##ul",
        "##t"
      ],
      [
        "##ou",
        "##ld"
      ],
      [
        "##ation",
        "##s"
      ],
      [
        "Ġs",
        "##h"
      ],
      [
        "T",
        "##h"
      ],
      [
        "##or",
        "##m"
      ],
      [
        "##t",
        "##h"
      ],
      [
        "##t",
        "##e"
      ],
      [
        "##-",
        "##-"
      ],
      [
        "Ġc",
        "##h"
      ],
      [
        "##ra",
        "##c"
      ],
      [
        "##u",
        "##e"
      ],
      [
        "##al",
        "##l"
      ],
      [
        "##ion",
        "##s"
      ],
      [
        "Ġp",
        "##o"
      ],
      [
        "##a",
        "##ge"
      ],
      [
        "##b",
        "##er"
      ],
      [
        "##u",
        "##d"
      ],
      [
        "##or",
        "##t"
      ],
      [
        "##at",
        "##ed"
      ],
      [
        "##in",
        "##t"
      ],
      [
        "I",
        "##n"
      ],
      [
        "##u",
        "##st"
      ],
      [
        "##en",
        "##d"
      ],
      [
        "Ġ",
        "##R"
      ],
      [
        "Ġm",
        "##e"
      ],
      [
        "##ab",
        "##le"
      ],
      [
        "Ġ",
        "##F"
      ],
      [
        "Ġ",
        "##E"
      ],
      [
        "i",
        "##s"
      ],
      [
        "Ġ",
        "##u"
      ],
      [
        "##a",
        "##ct"
      ],
      [
        ")",
        "##."
      ],
      [
        "âĢ",
        "##Ļ"
      ],
      [
        "Ġ",
        "##D"
      ],
      [
        "Ġ",
        "##="
      ],
      [
        "##p",
        "##h"
      ],
      [
        "##{",
        "##\\"
      ],
      [
        "Ġ",
        "##B"
      ],
      [
        "Ġ",
        "##he"
      ],
      [
        "##om",
        "##e"
      ],
      [
        "Ġ",
        "##L"
      ],
      [
        "Ġ",
        "##le"
      ],
      [
        "##d",
        "##u"
      ],
      [
        "##ou",
        "##r"
      ],
      [
        "Ġ",
        "##qu"
      ],
      [
        "##x",
        "##t"
      ],
      [
        "##as",
        "##s"
      ],
      [
        "##un",
        "##ction"
      ],
      [
        "##an",
        "##s"
      ],
      [
        "##en",
        "##s"
      ],
      [
        "##a",
        "##ch"
      ],
      [
        "##in",
        "##d"
      ],
      [
        "##r",
        "##ou"
      ],
      [
        "Ġd",
        "##o"
      ],
      [
        "Ġre",
        "##s"
      ],
      [
        "##$",
        "##$"
      ],
      [
        "Ġn",
        "##um"
      ],
      [
        "Ġa",
        "##ll"
      ],
      [
        "##t",
        "##her"
      ],
      [
        "Ġcom",
        "##p"
      ],
      [
        "Ġa",
        "##b"
      ],
      [
        "##f",
        "##ere"
      ],
      [
        "##as",
        "##e"
      ],
      [
        "##ar",
        "##d"
      ],
      [
        "##an",
        "##g"
      ],
      [
        "##or",
        "##k"
      ],
      [
        "##id",
        "##e"
      ],
      [
        "Ġ",
        "##im"
      ],
      [
        "##f",
        "##f"
      ],
      [
        "##im",
        "##e"
      ],
      [
        "Ġw",
        "##ill"
      ],
      [
        "##ar",
        "##i"
      ],
      [
        "Ġm",
        "##od"
      ],
      [
        "##am",
        "##e"
      ],
      [
        "##a",
        "##p"
      ],
      [
        "##en",
        "##er"
      ],
      [
        "m",
        "##ath"
      ],
      [
        "Ġ",
        "##G"
      ],
      [
        "##en",
        "##ce"
      ],
      [
        "##o",
        "##st"
      ],
      [
        "Ġe",
        "##qu"
      ],
      [
        "f",
        "##rac"
      ],
      [
        "Ġt",
        "##r"
      ],
      [
        "##he",
        "##n"
      ],
      [
        "##a",
        "##re"
      ],
      [
        "}",
        "##}"
      ],
      [
        "Ġ",
        "##k"
      ],
      [
        "##it",
        "##e"
      ],
      [
        "##ar",
        "##y"
      ],
      [
        "##a",
        "##ce"
      ],
      [
        "Ġ",
        "##N"
      ],
      [
        "##ig",
        "##n"
      ],
      [
        "##it",
        "##ion"
      ],
      [
        "##o",
        "##p"
      ],
      [
        "w",
        "##h"
      ],
      [
        "##â",
        "##Ģ"
      ],
      [
        "Ġin",
        "##t"
      ],
      [
        "t",
        "##h"
      ],
      [
        ")",
        "##,"
      ],
      [
        "##ou",
        "##t"
      ],
      [
        "##an",
        "##ce"
      ],
      [
        "##ic",
        "##s"
      ],
      [
        "Ġc",
        "##l"
      ],
      [
        "Ġ",
        "##un"
      ],
      [
        "##e",
        "##c"
      ],
      [
        "$",
        "##\\"
      ],
      [
        "##e",
        "##w"
      ],
      [
        "##al",
        "##ly"
      ],
      [
        "##y",
        "##s"
      ],
      [
        "##er",
        "##m"
      ],
      [
        "Ġcon",
        "##t"
      ],
      [
        "##e",
        "##p"
      ],
      [
        "Ġf",
        "##unction"
      ],
      [
        "Ġon",
        "##e"
      ],
      [
        "_",
        "##{"
      ],
      [
        "##i",
        "##re"
      ],
      [
        "Th",
        "##is"
      ],
      [
        "##a",
        "##k"
      ],
      [
        "##at",
        "##a"
      ],
      [
        "}",
        "##{"
      ],
      [
        "##ou",
        "##s"
      ],
      [
        "Ġ",
        "##-"
      ],
      [
        "##ac",
        "##k"
      ],
      [
        "Ġv",
        "##al"
      ],
      [
        "o",
        "##r"
      ],
      [
        "#",
        "####"
      ],
      [
        "###",
        "###"
      ],
      [
        "Ġ",
        "##H"
      ],
      [
        "##e",
        "##g"
      ],
      [
        "Ġw",
        "##as"
      ],
      [
        "##he",
        "##re"
      ],
      [
        "##as",
        "##t"
      ],
      [
        "##w",
        "##o"
      ],
      [
        "Ġd",
        "##if"
      ],
      [
        ".",
        "##.."
      ],
      [
        "Ġa",
        "##d"
      ],
      [
        "##on",
        "##d"
      ],
      [
        "Ġp",
        "##l"
      ],
      [
        "##c",
        "##c"
      ],
      [
        "w",
        "##e"
      ],
      [
        "##on",
        "##g"
      ],
      [
        "##ut",
        "##ion"
      ],
      [
        "Ġs",
        "##y"
      ],
      [
        "Ġ",
        "##Ġ"
      ],
      [
        "##f",
        "##orm"
      ],
      [
        "##r",
        "##ic"
      ],
      [
        "##g",
        "##h"
      ],
      [
        "##u",
        "##b"
      ],
      [
        "Ġm",
        "##at"
      ],
      [
        "##_",
        "##_"
      ],
      [
        "##s",
        "##o"
      ],
      [
        "##i",
        "##p"
      ],
      [
        "##r",
        "##u"
      ],
      [
        "##c",
        "##l"
      ],
      [
        "##i",
        "##le"
      ],
      [
        "##res",
        "##s"
      ],
      [
        "Ġs",
        "##p"
      ],
      [
        "##o",
        "##ll"
      ],
      [
        "##re",
        "##e"
      ],
      [
        "##o",
        "##k"
      ],
      [
        "Ġo",
        "##ut"
      ],
      [
        "Ġh",
        "##as"
      ],
      [
        "Ġ",
        "##+"
      ],
      [
        "##or",
        "##d"
      ],
      [
        "##ent",
        "##s"
      ],
      [
        "##or",
        "##s"
      ],
      [
        "Ġfor",
        "##m"
      ],
      [
        "Ġo",
        "##b"
      ],
      [
        "##et",
        "##w"
      ],
      [
        "##e",
        "##xt"
      ],
      [
        "t",
        "##o"
      ],
      [
        "Ġp",
        "##re"
      ],
      [
        "W",
        "##e"
      ],
      [
        "b",
        "##ut"
      ],
      [
        "Ġt",
        "##wo"
      ],
      [
        "##or",
        "##y"
      ],
      [
        "Ġs",
        "##c"
      ],
      [
        "##et",
        "##h"
      ],
      [
        "Ġs",
        "##ol"
      ],
      [
        "Ġa",
        "##r"
      ],
      [
        "##os",
        "##e"
      ],
      [
        "##ri",
        "##b"
      ],
      [
        "##a",
        "##v"
      ],
      [
        "##r",
        "##y"
      ],
      [
        "##ou",
        "##nd"
      ],
      [
        "Ġ",
        "##if"
      ],
      [
        "Ġp",
        "##er"
      ],
      [
        "Ġ",
        "##j"
      ],
      [
        "}",
        "##$"
      ],
      [
        "##am",
        "##ple"
      ],
      [
        "##ve",
        "##l"
      ],
      [
        "##j",
        "##ect"
      ],
      [
        "Ġm",
        "##ore"
      ],
      [
        "##p",
        "##ut"
      ],
      [
        "Ġd",
        "##is"
      ],
      [
        "Ġp",
        "##art"
      ],
      [
        "##le",
        "##ct"
      ],
      [
        "Ġs",
        "##pe"
      ],
      [
        "##i",
        "##ke"
      ],
      [
        "Ġs",
        "##ome"
      ],
      [
        "Ġnum",
        "##ber"
      ],
      [
        "##c",
        "##ul"
      ],
      [
        "Ġdif",
        "##fere"
      ],
      [
        "Ġo",
        "##ther"
      ],
      [
        "Ġyou",
        "##r"
      ],
      [
        "Ġs",
        "##et"
      ],
      [
        "Ġ",
        "##ver"
      ],
      [
        "##st",
        "##em"
      ],
      [
        "##ble",
        "##m"
      ],
      [
        "##ra",
        "##m"
      ],
      [
        "Ġwh",
        "##ich"
      ],
      [
        "##at",
        "##es"
      ],
      [
        "f",
        "##or"
      ],
      [
        "Ġs",
        "##im"
      ],
      [
        "Ġan",
        "##y"
      ],
      [
        "##n",
        "##ow"
      ],
      [
        "##at",
        "##ive"
      ],
      [
        "##i",
        "##b"
      ],
      [
        "r",
        "##ight"
      ],
      [
        "Ġ",
        "##$"
      ],
      [
        "Ġ",
        "##O"
      ],
      [
        "Ġ",
        "##âĢ"
      ],
      [
        "Ġus",
        "##e"
      ],
      [
        "I",
        "##f"
      ],
      [
        "Ġ",
        "##W"
      ],
      [
        "##he",
        "##m"
      ],
      [
        "Ġt",
        "##ime"
      ],
      [
        "##a",
        "##ke"
      ],
      [
        "Ġmod",
        "##el"
      ],
      [
        "##ir",
        "##st"
      ],
      [
[...]
